[PAD]	0
[UNK]	0
[BOS]	0
[EOS]	0
[SEP]	0
[CLS]	0
[MASK]	0
▁.	-0
▁?	-1
▁있	-2
군요	-3
▁나	-4
▁어	-5
▁하	-6
▁이	-7
▁아	-8
▁것	-9
까요	-10
겠어	-11
▁내	-12
▁그	-13
▁수	-14
는데	-15
친구	-16
▁좋	-17
▁사	-18
▁같	-19
▁해	-20
을까요	-21
▁일	-22
겠어요	-23
▁친구	-24
▁어떻	-25
▁어떻게	-26
▁너	-27
▁너무	-28
▁없	-29
▁자	-30
▁생	-31
▁많	-32
▁다	-33
▁가	-34
▁상	-35
▁기	-36
▁안	-37
▁지	-38
시군요	-39
▁같아	-40
▁때	-41
에서	-42
▁않	-43
▁힘	-44
시겠어요	-45
▁부	-46
▁할	-47
▁무	-48
▁있을까요	-49
▁못	-50
▁보	-51
으로	-52
▁마	-53
▁말	-54
▁내가	-55
▁생각	-56
시는	-57
▁많이	-58
▁대	-59
▁정	-60
하고	-61
▁잘	-62
▁남	-63
▁되	-64
▁모	-65
▁마음	-66
들이	-67
▁들	-68
▁상황	-69
에게	-70
해서	-71
▁건	-72
▁거	-73
▁싶	-74
시는군요	-75
▁더	-76
▁사람	-77
▁고	-78
하는	-79
걱정	-80
▁걱정	-81
▁때문	-82
▁기분	-83
다고	-84
나요	-85
어서	-86
▁게	-87
▁불	-88
셨군요	-89
▁때문에	-90
▁오	-91
▁시	-92
▁주	-93
▁위	-94
▁당	-95
▁받	-96
▁지금	-97
▁어떤	-98
▁느	-99
▁있는	-100
▁정말	-101
▁하면	-102
▁속	-103
이야	-104
▁계	-105
▁슬	-106
▁결	-107
▁한	-108
▁방	-109
스러	-110
▁속상	-111
▁하는	-112
▁화	-113
▁우	-114
▁봐	-115
▁일이	-116
▁회	-117
▁마음이	-118
라고	-119
▁돈	-120
▁힘들	-121
▁만	-122
▁했	-123
▁부모	-124
▁힘드	-125
가요	-126
▁노	-127
▁남편	-128
▁않아	-129
▁해야	-130
▁부모님	-131
▁것이	-132
▁방법	-133
▁여	-134
하게	-135
▁건강	-136
▁요	-137
▁직	-138
▁아내	-139
▁걸	-140
▁혼	-141
▁기분이	-142
▁집	-143
▁좋을까요	-144
▁있으	-145
▁그런	-146
▁하고	-147
▁좋은	-148
▁들어	-149
▁나는	-150
▁전	-151
▁회사	-152
▁학	-153
▁무엇	-154
▁살	-155
▁성	-156
▁동	-157
▁조	-158
네요	-159
▁앞	-160
▁친구가	-161
▁위해	-162
▁좋아	-163
▁알	-164
셔서	-165
▁취	-166
▁도	-167
▁드	-168
▁속상하	-169
▁가족	-170
▁결혼	-171
▁인	-172
▁후	-173
▁문	-174
▁없어	-175
▁공	-176
▁고민	-177
▁불안	-178
▁모르	-179
▁미	-180
다는	-181
한테	-182
▁실	-183
▁병	-184
하지	-185
▁신	-186
▁친구들	-187
▁바	-188
▁소	-189
▁화가	-190
▁나를	-191
▁감	-192
▁관	-193
▁스	-194
렇게	-195
▁진	-196
▁문제	-197
▁연	-198
▁느끼	-199
▁엄	-200
▁요즘	-201
▁다른	-202
▁왜	-203
▁상황을	-204
▁있어	-205
지만	-206
▁해서	-207
하기	-208
준비	-209
▁앞으로	-210
▁일을	-211
다니	-212
▁비	-213
▁괴	-214
▁열	-215
▁이제	-216
▁어려	-217
▁선	-218
▁중	-219
▁나이	-220
▁말씀	-221
했어	-222
▁몸	-223
니까	-224
▁외	-225
▁걱정이	-226
▁슬프	-227
▁자신	-228
▁자식	-229
▁직장	-230
신가요	-231
▁의	-232
▁아무	-233
▁난	-234
▁당황	-235
었어	-236
▁무슨	-237
▁공부	-238
까지	-239
▁방법이	-240
▁힘들어	-241
▁엄마	-242
▁아이	-243
▁해결	-244
▁혼자	-245
이라	-246
▁생각하	-247
▁싫	-248
▁먹	-249
▁매	-250
셨나요	-251
▁생각이	-252
▁오늘	-253
▁분	-254
▁벗	-255
은데	-256
▁우울	-257
스러워	-258
▁따	-259
▁준비	-260
▁이런	-261
감이	-262
▁취업	-263
▁우리	-264
▁경	-265
▁서	-266
▁될	-267
려고	-268
▁줄	-269
▁심	-270
▁모르겠어	-271
▁학교	-272
▁두	-273
▁행	-274
레스	-275
▁날	-276
▁맞	-277
세요	-278
▁벗어	-279
▁스트	-280
▁응	-281
▁스트레스	-282
셨겠어요	-283
자친구	-284
으면	-285
▁그래	-286
▁예	-287
▁상황에서	-288
했는데	-289
▁같아요	-290
적으로	-291
▁조금	-292
▁점	-293
인데	-294
▁있을	-295
▁좀	-296
▁돼	-297
해야	-298
심히	-299
▁열심히	-300
▁같아서	-301
▁사람들	-302
기를	-303
▁싶어	-304
▁이유	-305
▁슬퍼	-306
▁!	-307
▁자세	-308
▁감정	-309
었는데	-310
우시군요	-311
▁이번	-312
아서	-313
해주	-314
면서	-315
기가	-316
▁애	-317
▁반	-318
▁후회	-319
▁무엇을	-320
▁힘드시겠어요	-321
▁짜	-322
▁친	-323
▁자꾸	-324
▁눈	-325
▁재	-326
하시군요	-327
▁그러	-328
▁말을	-329
▁편	-330
▁제	-331
▁사람이	-332
▁병원	-333
으시군요	-334
▁할지	-335
▁짜증	-336
▁계속	-337
▁나아	-338
▁없어서	-339
▁노후	-340
져서	-341
▁죄	-342
▁떨	-343
▁아니	-344
▁지금의	-345
▁하는데	-346
▁치	-347
보다	-348
▁도움	-349
적이	-350
▁나도	-351
▁얼	-352
▁원	-353
▁남편이	-354
▁갑	-355
▁시간	-356
▁했는데	-357
▁자세히	-358
▁친구들이	-359
거든	-360
▁배	-361
▁돈을	-362
▁퇴	-363
▁상황이	-364
▁딸	-365
▁이야	-366
에는	-367
▁느껴	-368
부터	-369
▁미안	-370
▁싸	-371
▁얘	-372
▁돌	-373
▁죽	-374
머니	-375
▁뭐	-376
▁달	-377
▁벗어나	-378
▁놀	-379
▁아직	-380
▁없는	-381
았어	-382
▁있는데	-383
▁벌	-384
들에게	-385
▁그렇게	-386
리를	-387
적인	-388
▁구	-389
▁봐요	-390
▁아내가	-391
▁큰	-392
▁쓰	-393
▁언	-394
▁만나	-395
님이	-396
▁속상하시겠어요	-397
대로	-398
▁업	-399
▁아프	-400
려면	-401
▁떨어	-402
▁대화	-403
▁연락	-404
▁대학	-405
▁약	-406
▁이렇게	-407
▁같이	-408
▁괴로	-409
▁상처	-410
▁업무	-411
는지	-412
▁피	-413
▁있나요	-414
▁변	-415
▁몸이	-416
▁잘못	-417
▁은	-418
▁누	-419
▁크	-420
▁대해	-421
지고	-422
▁거야	-423
▁찾	-424
▁믿	-425
▁적	-426
▁몰	-427
▁아빠	-428
▁있어서	-429
▁손	-430
다가	-431
하시겠어요	-432
▁세	-433
▁입	-434
▁고민이	-435
▁새	-436
▁생활	-437
▁주변	-438
▁참	-439
▁좋지	-440
▁부모님이	-441
▁싫어	-442
▁죄책	-443
▁저	-444
하셨군요	-445
▁가장	-446
▁마음을	-447
▁장	-448
▁하지	-449
시나요	-450
▁위해서	-451
았는데	-452
하면	-453
▁기쁘	-454
▁무엇이	-455
▁괴롭	-456
▁외로	-457
▁돈이	-458
스럽	-459
▁나이가	-460
▁된	-461
▁좋으	-462
자기	-463
▁운	-464
지는	-465
▁이혼	-466
▁갑자기	-467
▁평	-468
▁있었	-469
▁남자친구	-470
▁간	-471
▁얼마	-472
▁않아서	-473
▁막	-474
▁할까요	-475
▁시험	-476
▁불편	-477
▁과	-478
▁억	-479
리가	-480
▁계시는군요	-481
▁벗어나기	-482
▁싶은데	-483
▁물	-484
▁그렇	-485
▁걱정되	-486
▁실망	-487
▁처	-488
▁노력	-489
▁두려	-490
▁보고	-491
겠네요	-492
▁받으	-493
▁힘드시군요	-494
▁회사에서	-495
▁나만	-496
▁살아	-497
▁유	-498
▁따돌	-499
▁신경	-500
▁행동	-501
▁항	-502
▁선생	-503
감을	-504
▁허	-505
▁했어	-506
들을	-507
▁버	-508
▁은퇴	-509
▁자녀	-510
▁차	-511
▁질	-512
▁경제	-513
▁억울	-514
들과	-515
▁보니	-516
▁충	-517
▁것을	-518
▁다행	-519
▁것도	-520
더라고	-521
▁사용	-522
▁불안해	-523
▁하나	-524
▁답	-525
스러우	-526
▁자신이	-527
▁힘든	-528
하시	-529
▁받아	-530
▁말씀해	-531
셨어	-532
▁데	-533
▁다니	-534
▁나한테	-535
▁그래서	-536
▁싶은	-537
▁떠	-538
▁상사	-539
▁초	-540
▁관계	-541
▁부모님께	-542
졌어	-543
▁대한	-544
분이	-545
▁면	-546
▁결과	-547
▁변화	-548
▁아파	-549
기도	-550
▁아들이	-551
더니	-552
와서	-553
▁아주	-554
▁사람들이	-555
겠군요	-556
에도	-557
으니	-558
을까	-559
▁운동	-560
▁모습	-561
▁같은	-562
▁함	-563
▁집에	-564
▁항상	-565
▁혼란	-566
▁되는	-567
▁속상해	-568
들은	-569
텐데	-570
▁걱정이야	-571
▁최	-572
▁친구를	-573
▁한심	-574
▁갈	-575
▁되어	-576
▁곳	-577
▁없이	-578
▁현	-579
▁얘기	-580
▁퇴직	-581
▁아닌	-582
▁성적이	-583
▁올	-584
움을	-585
지도	-586
동안	-587
▁예전	-588
▁그만	-589
처럼	-590
▁나아질	-591
▁극	-592
신가	-593
▁동생	-594
▁통	-595
▁이야기	-596
▁사용자	-597
▁사실	-598
▁진로	-599
▁무시	-600
▁인해	-601
▁건가요	-602
▁본	-603
▁없고	-604
▁나에게	-605
리고	-606
▁매일	-607
▁텐데	-608
▁답답	-609
▁함께	-610
▁어머니	-611
▁괜	-612
▁느낌	-613
▁볼	-614
▁극복	-615
▁도움이	-616
렸어	-617
▁많아	-618
인지	-619
▁동료	-620
▁친구와	-621
▁친구들과	-622
마다	-623
▁기분에서	-624
▁모두	-625
▁번	-626
▁행복	-627
▁출	-628
워서	-629
▁필	-630
▁또	-631
려서	-632
▁건강이	-633
▁있으신가요	-634
▁않고	-635
▁죄책감이	-636
▁여자친구	-637
▁못해	-638
▁없을까요	-639
▁느끼시는군요	-640
▁않는	-641
▁변화시	-642
▁술	-643
▁친구에게	-644
▁엄마가	-645
▁듣	-646
▁발	-647
▁챙	-648
▁풀	-649
▁이상	-650
했던	-651
▁사이	-652
▁면접	-653
하는데	-654
▁이유가	-655
라도	-656
라서	-657
▁많은	-658
하다고	-659
▁아픈	-660
▁기분을	-661
▁계획	-662
▁됐	-663
▁나가	-664
▁년	-665
▁치료	-666
▁눈물	-667
▁젊	-668
심이	-669
▁새로	-670
▁않으	-671
▁여자	-672
▁따돌림	-673
▁교	-674
지가	-675
▁식	-676
▁필요	-677
▁못해서	-678
하셔서	-679
▁팀	-680
▁이번에	-681
▁못한	-682
▁도와	-683
▁선생님	-684
▁다시	-685
▁실수	-686
라는	-687
▁남자	-688
▁될까요	-689
▁충격	-690
▁형	-691
▁주시겠어요	-692
▁맞아	-693
▁지내	-694
이나	-695
▁그냥	-696
▁영	-697
▁성적	-698
▁수가	-699
▁부끄	-700
▁드시는군요	-701
리는	-702
▁이해	-703
▁공부를	-704
다면	-705
▁사용자님	-706
▁직원	-707
▁하실	-708
▁딸이	-709
▁보여	-710
일까요	-711
▁먼	-712
▁세상	-713
것도	-714
▁보내	-715
▁감정을	-716
▁아버	-717
주지	-718
스러운	-719
▁갔	-720
▁부족	-721
▁문제로	-722
▁돌아	-723
▁점점	-724
▁인생	-725
인이	-726
▁나아지	-727
▁보이	-728
하시는군요	-729
할까	-730
▁축	-731
▁자주	-732
▁근	-733
께서	-734
하실	-735
▁먼저	-736
력이	-737
▁해결할	-738
▁어제	-739
▁늘	-740
▁들어서	-741
▁다들	-742
▁생각을	-743
▁말씀해주	-744
▁자기	-745
▁않은	-746
하신	-747
▁별	-748
식을	-749
생활	-750
▁잃	-751
▁기뻐	-752
▁명	-753
▁보면	-754
▁문제를	-755
▁속상하시군요	-756
▁싸우	-757
▁귀	-758
▁고생	-759
▁오래	-760
이라도	-761
▁삶	-762
▁친한	-763
▁매우	-764
▁싶으	-765
▁어려워	-766
▁스트레스를	-767
▁덜	-768
▁걸까	-769
▁자식들이	-770
▁많으	-771
▁나서	-772
함을	-773
▁쓸	-774
▁해도	-775
스러우시군요	-776
▁먹고	-777
▁전에	-778
▁생기	-779
▁코	-780
▁용	-781
▁알아	-782
▁진짜	-783
▁그동안	-784
러워	-785
▁도움을	-786
▁때마다	-787
▁키	-788
▁수술	-789
▁아무도	-790
들의	-791
▁연애	-792
▁빨	-793
기로	-794
▁배신	-795
▁슬프시군요	-796
느라	-797
▁생각해	-798
▁태	-799
▁왔	-800
스로	-801
▁혹	-802
▁나오	-803
▁우울해	-804
하셨	-805
셨어요	-806
▁생각하시는군요	-807
▁정신	-808
더라	-809
▁문제가	-810
▁금	-811
▁초조	-812
▁개	-813
▁찾아	-814
▁돼서	-815
▁방법은	-816
▁아빠가	-817
▁언니	-818
▁슬프시겠어요	-819
▁직장에서	-820
▁합	-821
▁스스로	-822
시고	-823
폭력	-824
▁정도	-825
▁시작	-826
▁우울증	-827
▁뭘	-828
▁화를	-829
▁그래도	-830
▁이럴	-831
▁제대로	-832
▁늦	-833
▁헤	-834
▁작	-835
이시군요	-836
▁여행	-837
▁막막	-838
사를	-839
▁눈물이	-840
▁결과가	-841
▁뒤	-842
▁괜찮	-843
▁암	-844
▁부담	-845
▁사는	-846
▁프	-847
웠어	-848
▁혹시	-849
▁학교에서	-850
자고	-851
▁빌	-852
▁결혼을	-853
▁나셨군요	-854
▁하시는군요	-855
▁넘	-856
▁언제	-857
▁마음에	-858
▁다행이	-859
▁좋으시겠어요	-860
▁빨리	-861
▁생겨	-862
▁끝	-863
▁옆	-864
▁회사에	-865
▁멀	-866
▁병원에	-867
▁쉽	-868
▁잠	-869
장이	-870
▁이러	-871
▁없는데	-872
▁이야기를	-873
▁시간이	-874
▁감사	-875
▁나와	-876
▁평소	-877
▁아무것도	-878
금을	-879
▁대처	-880
▁되고	-881
인가요	-882
정을	-883
▁승	-884
▁온	-885
줘서	-886
하네	-887
▁잔	-888
▁설	-889
정이	-890
▁눈치	-891
▁생겼	-892
▁등	-893
▁났	-894
▁책	-895
▁커	-896
로나	-897
▁처음	-898
▁연락이	-899
▁체	-900
▁하니	-901
▁않았	-902
▁빠	-903
▁투	-904
▁코로나	-905
▁환	-906
▁담	-907
▁늙	-908
보고	-909
▁겪	-910
▁절	-911
▁서운	-912
해지	-913
▁노인	-914
▁축하	-915
▁고마	-916
▁무서	-917
하시는	-918
관계	-919
▁집안	-920
▁감정이	-921
▁망	-922
▁음	-923
되는	-924
▁서로	-925
▁새로운	-926
▁친구의	-927
밖에	-928
▁조심	-929
▁때는	-930
▁즐	-931
▁그럴	-932
▁물어	-933
▁희	-934
▁하게	-935
검진	-936
▁상태	-937
▁하루	-938
하던	-939
▁가족들이	-940
▁꿈	-941
▁의사	-942
▁모든	-943
▁몇	-944
지를	-945
▁걱정돼	-946
▁사랑	-947
▁어떠	-948
▁탓	-949
▁전화	-950
▁헤어	-951
▁두려워	-952
어야	-953
▁건지	-954
하다	-955
▁있을까	-956
▁있지	-957
▁가고	-958
▁다녀	-959
우시겠어요	-960
▁어디	-961
▁비교	-962
▁받고	-963
▁기대	-964
▁떠나	-965
▁목	-966
시나	-967
▁알고	-968
▁지원	-969
▁말이야	-970
▁있으시군요	-971
▁승진	-972
▁그런데	-973
▁벗어날	-974
▁일은	-975
▁짜증이	-976
▁챙겨	-977
▁복	-978
▁좋아하는	-979
▁꼭	-980
겠지	-981
▁집에서	-982
▁가지	-983
▁일로	-984
▁당황스러워	-985
▁어떡	-986
▁받는	-987
었던	-988
▁되지	-989
▁보네요	-990
▁월	-991
▁느껴져	-992
▁이제는	-993
▁당황스러우	-994
▁불안하시군요	-995
▁만들	-996
▁병원비	-997
▁중요	-998
▁할까	-999
▁것은	-1000
▁합격	-1001
▁약속	-1002
▁대화를	-1003
▁좋겠어	-1004
▁준비를	-1005
▁강	-1006
주는	-1007
▁기쁘시겠어요	-1008
▁친구분	-1009
▁하지만	-1010
▁오랜	-1011
▁상황에	-1012
▁괴로워	-1013
▁걱정이시군요	-1014
▁그랬	-1015
▁외롭	-1016
▁건강을	-1017
▁되어서	-1018
▁산	-1019
▁뭐가	-1020
▁느끼고	-1021
▁주변에	-1022
▁질투	-1023
▁얘기를	-1024
▁남편과	-1025
▁써	-1026
▁거군요	-1027
▁어려운	-1028
▁얼마나	-1029
▁몰라	-1030
▁집중	-1031
▁아내와	-1032
▁미안해	-1033
▁독	-1034
▁밥	-1035
▁봤	-1036
▁일도	-1037
▁힘이	-1038
▁많아서	-1039
키기	-1040
▁나의	-1041
▁미래	-1042
▁위한	-1043
▁나시는군요	-1044
▁것에	-1045
하려고	-1046
▁노후준비	-1047
▁사람을	-1048
▁내일	-1049
▁원하는	-1050
업을	-1051
▁괴롭히	-1052
▁와서	-1053
▁프로	-1054
들도	-1055
▁다음	-1056
▁하기	-1057
▁경제적으로	-1058
▁취직	-1059
에요	-1060
▁귀찮	-1061
▁가지고	-1062
▁받았어	-1063
▁되었	-1064
▁그만두	-1065
▁실패	-1066
▁선물	-1067
▁심해	-1068
▁현재	-1069
▁고민이야	-1070
▁쉬	-1071
하니	-1072
▁여유	-1073
▁같은데	-1074
▁어렵	-1075
▁아파서	-1076
장님	-1077
▁무언	-1078
▁할머니	-1079
▁분이	-1080
▁말이	-1081
▁못하고	-1082
▁무언가	-1083
▁장애	-1084
▁싶지	-1085
▁있을지	-1086
▁기분이야	-1087
▁본인	-1088
▁단	-1089
▁왕	-1090
▁선택	-1091
시겠군요	-1092
▁확	-1093
▁만족	-1094
▁시간을	-1095
▁긴	-1096
▁모아	-1097
하면서	-1098
▁못하는	-1099
▁울	-1100
움이	-1101
▁놓	-1102
▁임	-1103
▁점이	-1104
▁중이야	-1105
▁흥	-1106
셨나	-1107
▁나빠	-1108
▁없으	-1109
▁슬픈	-1110
▁돌아가	-1111
하셨겠어요	-1112
▁말씀해주시겠어요	-1113
▁아들	-1114
▁아이를	-1115
▁친구들은	-1116
▁무척	-1117
▁있으셨나요	-1118
주고	-1119
▁어쩌	-1120
▁제일	-1121
하기가	-1122
해도	-1123
▁가서	-1124
▁수도	-1125
잖아	-1126
▁없다고	-1127
▁나랑	-1128
▁화나	-1129
는군요	-1130
▁느껴지	-1131
▁사고	-1132
▁크게	-1133
▁돈도	-1134
한다고	-1135
▁별로	-1136
겠다고	-1137
▁좋으시군요	-1138
▁야	-1139
▁완	-1140
한데	-1141
▁끊	-1142
▁며	-1143
이라고	-1144
▁상처를	-1145
▁부모님의	-1146
이가	-1147
▁됐어	-1148
어나	-1149
▁모습을	-1150
▁사람들과	-1151
▁바람	-1152
▁편안	-1153
▁나보다	-1154
▁되었어	-1155
▁나왔	-1156
▁길	-1157
▁사회	-1158
▁악	-1159
▁오해	-1160
▁이젠	-1161
▁주실	-1162
▁책임	-1163
▁방법일까요	-1164
▁해결하기	-1165
▁특	-1166
▁취업이	-1167
▁모임	-1168
▁왕따	-1169
▁학원	-1170
▁좋아서	-1171
가는	-1172
▁바라	-1173
▁치매	-1174
디어	-1175
자가	-1176
▁최근	-1177
▁게임	-1178
▁청	-1179
▁알려	-1180
▁일자	-1181
▁변화시키기	-1182
▁거짓	-1183
▁벌써	-1184
▁그럼	-1185
▁높	-1186
▁부끄러	-1187
▁소득	-1188
▁잔소	-1189
▁꾸	-1190
▁낮	-1191
버렸어	-1192
▁한심해	-1193
▁좋을	-1194
▁급	-1195
▁듣고	-1196
▁아닌데	-1197
▁않을	-1198
▁이유로	-1199
▁힘들고	-1200
냐고	-1201
예요	-1202
▁있군요	-1203
▁용돈	-1204
▁해소	-1205
▁불행	-1206
▁동생이	-1207
▁당뇨	-1208
▁하시	-1209
▁아이가	-1210
▁남자친구가	-1211
▁머	-1212
식이	-1213
▁가게	-1214
▁친구들에게	-1215
▁표	-1216
▁타	-1217
▁미안한	-1218
▁상처받	-1219
▁시도	-1220
▁괴로우시군요	-1221
▁말도	-1222
▁많으시군요	-1223
▁사이가	-1224
▁엄청	-1225
▁증	-1226
▁사과	-1227
▁성격	-1228
▁열등	-1229
▁살고	-1230
▁일에	-1231
니다	-1232
▁생각에	-1233
▁누구	-1234
▁후회돼	-1235
젝트	-1236
▁프로젝트	-1237
▁갖	-1238
기는	-1239
▁월급	-1240
▁보군요	-1241
▁변화시킬	-1242
▁가는	-1243
▁근데	-1244
▁당혹	-1245
▁친구랑	-1246
▁알게	-1247
으셨군요	-1248
▁출산	-1249
▁거짓말	-1250
▁상사가	-1251
▁여러	-1252
▁친구는	-1253
▁삼	-1254
▁잡	-1255
▁운동을	-1256
▁있다고	-1257
▁외로워	-1258
▁능	-1259
보는	-1260
▁부모님과	-1261
▁고민이시군요	-1262
▁곧	-1263
봐야	-1264
▁가난	-1265
▁다가	-1266
도록	-1267
▁느낌이	-1268
▁하셔서	-1269
▁맡	-1270
▁직장을	-1271
▁자식들에게	-1272
▁될까	-1273
▁빌려	-1274
▁추	-1275
▁보는	-1276
▁자녀분	-1277
▁따돌림을	-1278
▁스트레스가	-1279
▁회의	-1280
▁후회가	-1281
▁아내에게	-1282
▁졸	-1283
▁극복할	-1284
▁받을	-1285
▁상담	-1286
▁욕	-1287
드려	-1288
▁관계가	-1289
▁애들이	-1290
되어	-1291
▁재정	-1292
▁아직도	-1293
▁군요	-1294
▁성공	-1295
▁김	-1296
▁관심	-1297
▁긴장	-1298
▁평생	-1299
기에	-1300
▁놀라	-1301
▁의견	-1302
▁요새	-1303
▁가정	-1304
▁갑작	-1305
▁매번	-1306
미가	-1307
▁투자	-1308
▁그렇군요	-1309
수가	-1310
▁만큼	-1311
▁부모님은	-1312
▁안타	-1313
▁없으니	-1314
▁동안	-1315
▁짜증나	-1316
시겠네요	-1317
▁선생님이	-1318
▁혼란스러워	-1319
▁들고	-1320
▁시선	-1321
▁받아서	-1322
▁아버지	-1323
▁기다	-1324
▁억울해	-1325
▁하네	-1326
▁생일	-1327
▁하시는	-1328
▁와	-1329
수록	-1330
▁지나	-1331
▁있으면	-1332
▁낳	-1333
▁대인	-1334
▁만한	-1335
▁아드	-1336
▁없을	-1337
▁해고	-1338
비를	-1339
었을	-1340
▁상대	-1341
▁못하	-1342
▁포	-1343
학교	-1344
▁곳이	-1345
▁어려움을	-1346
▁대해서	-1347
▁부모님께서	-1348
▁둘	-1349
▁있었는데	-1350
▁폭력	-1351
▁척	-1352
▁보험	-1353
▁술을	-1354
▁신뢰	-1355
▁채	-1356
식에	-1357
▁기억	-1358
▁적이	-1359
▁진로를	-1360
▁불만	-1361
▁얼굴	-1362
▁죄송	-1363
▁있었나요	-1364
▁하셨군요	-1365
▁몸도	-1366
업에	-1367
들한테	-1368
▁감정에서	-1369
▁예전에	-1370
▁그게	-1371
▁성가	-1372
혈압	-1373
▁유지	-1374
▁지금은	-1375
▁받으셨군요	-1376
장애	-1377
▁태도	-1378
▁나와서	-1379
▁당황스럽	-1380
▁현실	-1381
▁살아야	-1382
▁건데	-1383
▁걱정되시는군요	-1384
▁땐	-1385
래도	-1386
▁멀어	-1387
▁한다고	-1388
▁취업을	-1389
▁알았는데	-1390
▁얻	-1391
셨는데	-1392
▁연락을	-1393
▁후회되	-1394
랐어	-1395
▁맞는	-1396
▁창	-1397
▁건강에	-1398
▁스트레스받	-1399
▁옷	-1400
업이	-1401
쳐서	-1402
▁더욱	-1403
▁뭔	-1404
▁무기	-1405
▁가족들에게	-1406
▁관리	-1407
▁내게	-1408
셨다니	-1409
▁남편의	-1410
▁부정	-1411
게요	-1412
▁있었어	-1413
▁사실을	-1414
장님이	-1415
▁대학에	-1416
▁무기력	-1417
▁이유를	-1418
▁덕	-1419
하려면	-1420
▁크시겠어요	-1421
▁속상하셨겠어요	-1422
▁갚	-1423
▁여행을	-1424
▁주위	-1425
▁거라고	-1426
실까요	-1427
▁되시는군요	-1428
▁사귀	-1429
▁의심	-1430
▁부부	-1431
▁조금이라도	-1432
▁많으시겠어요	-1433
▁젊은	-1434
▁방법을	-1435
▁휴	-1436
▁못했어	-1437
비가	-1438
▁거예요	-1439
▁들어가	-1440
▁있다는	-1441
기만	-1442
▁떨어져서	-1443
▁순	-1444
할지	-1445
▁배우	-1446
▁중이시군요	-1447
▁양	-1448
▁신체	-1449
▁앞에서	-1450
▁회사를	-1451
▁같네요	-1452
▁관심이	-1453
▁시험을	-1454
분에	-1455
▁낙	-1456
이트	-1457
▁입원	-1458
▁출근	-1459
▁다행이야	-1460
▁걱정을	-1461
▁따라	-1462
▁갱	-1463
▁갱년	-1464
리지	-1465
▁있게	-1466
▁허탈	-1467
▁슬프고	-1468
▁선배	-1469
▁빼	-1470
▁후에	-1471
▁무서워	-1472
▁사용자님의	-1473
▁나아지게	-1474
▁독립	-1475
▁위해서는	-1476
당한	-1477
▁담배	-1478
▁친구들을	-1479
▁쉽지	-1480
▁줄어	-1481
▁회복	-1482
하셨나요	-1483
▁나아질까요	-1484
활동	-1485
▁들었	-1486
▁재산	-1487
▁모르겠	-1488
▁반대	-1489
▁다투	-1490
▁들었어	-1491
▁백	-1492
▁건강검진	-1493
▁아무래도	-1494
하기도	-1495
▁달라	-1496
▁임신	-1497
▁학교에	-1498
▁싶으시군요	-1499
만에	-1500
▁노년	-1501
▁괴롭힘	-1502
▁가족이	-1503
▁힘들게	-1504
▁주는	-1505
시네요	-1506
났어	-1507
▁없네	-1508
▁그렇지	-1509
▁받지	-1510
▁주지	-1511
▁어떡하지	-1512
▁종	-1513
▁있으니	-1514
▁업무를	-1515
▁중요한	-1516
▁씨	-1517
▁절망	-1518
▁지난	-1519
▁계획이	-1520
▁생겨서	-1521
▁속상한	-1522
▁지금까지	-1523
▁야근	-1524
▁하니까	-1525
▁대인관계	-1526
▁육	-1527
서를	-1528
▁발표	-1529
▁폐	-1530
▁좋게	-1531
▁죽고	-1532
이라는	-1533
▁좋아지	-1534
▁회사가	-1535
▁고립	-1536
▁드디어	-1537
▁아이들이	-1538
▁생각했는데	-1539
▁결국	-1540
▁나고	-1541
▁질환	-1542
▁포기	-1543
▁하나도	-1544
▁있으세요	-1545
사가	-1546
▁형편	-1547
▁간섭	-1548
▁사람들을	-1549
▁받았	-1550
▁죽음	-1551
▁여자친구가	-1552
▁갈등	-1553
▁고민을	-1554
▁짐	-1555
여서	-1556
▁슬픔	-1557
▁해주	-1558
▁일인지	-1559
▁것만	-1560
▁만날	-1561
▁큰일	-1562
▁대학교	-1563
▁부분이	-1564
▁기쁘시군요	-1565
어버	-1566
▁전혀	-1567
▁표현	-1568
▁그런지	-1569
해주지	-1570
▁이혼을	-1571
▁하면서	-1572
▁행동을	-1573
▁목표	-1574
▁당하는	-1575
▁든	-1576
▁불안한	-1577
▁실수를	-1578
▁생각하는	-1579
▁깨	-1580
▁못할	-1581
▁병이	-1582
▁사라	-1583
▁아내의	-1584
▁하려고	-1585
▁계시군요	-1586
▁느낌이야	-1587
▁느끼셨군요	-1588
▁숨	-1589
▁탈	-1590
인가	-1591
▁자랑	-1592
▁피해	-1593
▁세상을	-1594
▁오랜만에	-1595
▁이겨	-1596
▁남편에게	-1597
▁꺼	-1598
▁팔	-1599
▁고등	-1600
드려요	-1601
▁남편분	-1602
▁되면	-1603
▁집을	-1604
이고	-1605
▁동기	-1606
▁인간	-1607
▁일상	-1608
▁생활이	-1609
▁거절	-1610
▁결정	-1611
▁괜히	-1612
▁아는	-1613
▁옆집	-1614
▁외롭고	-1615
▁않으시군요	-1616
▁때가	-1617
▁하셨나요	-1618
▁났어	-1619
▁평소에	-1620
▁밤	-1621
▁누나	-1622
▁집안일	-1623
▁힘들어서	-1624
돼서	-1625
하라고	-1626
▁잘못한	-1627
▁생각하시나요	-1628
▁준	-1629
▁해보	-1630
달라고	-1631
▁만나는	-1632
▁역	-1633
▁가져	-1634
▁신입	-1635
하니까	-1636
▁엄마는	-1637
▁파	-1638
려니	-1639
금이	-1640
질환	-1641
▁당장	-1642
▁진단	-1643
▁모습이	-1644
▁희망	-1645
▁시도해	-1646
▁아무리	-1647
▁잘하는	-1648
▁되니	-1649
▁바쁘	-1650
▁팀원	-1651
▁설명	-1652
▁축하드려요	-1653
▁좌	-1654
▁어쩔	-1655
▁있고	-1656
▁피곤	-1657
▁소개	-1658
▁졸업	-1659
다는데	-1660
▁상처가	-1661
제를	-1662
줬어	-1663
▁희생	-1664
▁떨어지	-1665
▁구체	-1666
▁이후	-1667
▁키우	-1668
▁퇴근	-1669
▁어머니가	-1670
▁오빠	-1671
▁주말	-1672
▁정도로	-1673
▁존	-1674
▁분명	-1675
적이야	-1676
▁있으셨군요	-1677
스러우시겠어요	-1678
▁싶으세요	-1679
▁학교폭력	-1680
▁솔	-1681
▁관계를	-1682
▁당황스러	-1683
▁친구한테	-1684
▁같고	-1685
▁몰래	-1686
▁다니는	-1687
▁안타까	-1688
▁후배	-1689
▁않았어	-1690
▁자신을	-1691
▁권	-1692
▁악화	-1693
▁뭐라고	-1694
▁생겼어	-1695
▁죄책감을	-1696
▁막막해	-1697
▁가족들과	-1698
▁나쁜	-1699
▁여기	-1700
▁당해서	-1701
▁준비가	-1702
▁멋	-1703
▁겪고	-1704
증이	-1705
▁병원에서	-1706
▁가까	-1707
▁대화가	-1708
▁생각하면	-1709
▁개선	-1710
▁관리를	-1711
▁어려움이	-1712
▁가끔	-1713
▁믿고	-1714
▁손자	-1715
▁어울	-1716
▁아니라	-1717
▁생각하니	-1718
▁부분	-1719
셨을	-1720
없는	-1721
▁대출	-1722
▁창피	-1723
▁무시하는	-1724
끼리	-1725
▁말해	-1726
▁좌절	-1727
▁초조해	-1728
▁사람들에게	-1729
▁솔직	-1730
▁않게	-1731
▁남편은	-1732
▁잊	-1733
▁갔는데	-1734
▁많은데	-1735
▁부서	-1736
▁인정	-1737
▁입사	-1738
▁중에	-1739
야겠어	-1740
했다고	-1741
▁하는지	-1742
▁약을	-1743
했군요	-1744
▁요즘은	-1745
▁그러시군요	-1746
이지	-1747
▁안좋	-1748
▁속상하고	-1749
▁불안하시겠어요	-1750
▁맛	-1751
▁어떨	-1752
▁자식들	-1753
▁판	-1754
▁남은	-1755
▁소외	-1756
▁선생님께	-1757
가를	-1758
▁오랫	-1759
▁당하고	-1760
▁성적을	-1761
▁싶어서	-1762
▁맨	-1763
▁불쌍	-1764
▁위로	-1765
▁직장에	-1766
▁오랫동안	-1767
▁지치	-1768
▁좋겠어요	-1769
▁늦게	-1770
▁쓸쓸	-1771
▁지인	-1772
▁치료를	-1773
▁검	-1774
▁나쁘	-1775
▁냈	-1776
▁빚	-1777
▁되네	-1778
▁생활을	-1779
▁뒷	-1780
수를	-1781
▁받은	-1782
▁환멸	-1783
▁사람들은	-1784
▁아버지가	-1785
같이	-1786
▁꾸준	-1787
▁물건	-1788
▁버려	-1789
▁덕분에	-1790
▁모르는	-1791
되고	-1792
▁맨날	-1793
▁일찍	-1794
▁느끼는	-1795
▁소득이	-1796
▁다행이네요	-1797
▁똑	-1798
질까	-1799
▁교육	-1800
▁나니	-1801
▁즐거	-1802
장을	-1803
▁드는	-1804
▁아침	-1805
▁나이에	-1806
▁아내를	-1807
▁받았는데	-1808
▁네	-1809
봐도	-1810
없이	-1811
▁검진	-1812
렸는데	-1813
▁도와주	-1814
▁앞으로도	-1815
▁황	-1816
▁말에	-1817
다네	-1818
리에	-1819
▁쓰이	-1820
▁하던	-1821
▁해볼	-1822
▁것처럼	-1823
과의	-1824
▁생긴	-1825
▁쓸모	-1826
왔는데	-1827
▁선물을	-1828
▁만성	-1829
▁왔어	-1830
었나요	-1831
▁십	-1832
▁며느	-1833
▁응원	-1834
▁자신의	-1835
▁생각하시는	-1836
▁천	-1837
▁잘해	-1838
였는데	-1839
▁수술을	-1840
▁구체적으로	-1841
▁붙	-1842
▁믿어	-1843
스럽게	-1844
▁힘든데	-1845
두고	-1846
▁어찌	-1847
▁저축	-1848
▁경제적	-1849
▁사람은	-1850
▁힘드셨겠어요	-1851
▁걱정되시겠어요	-1852
▁효	-1853
▁다르	-1854
▁이직	-1855
▁당연	-1856
▁벌어	-1857
▁손주	-1858
▁혼자서	-1859
있는	-1860
▁뭐야	-1861
▁없다는	-1862
▁부정적인	-1863
중에	-1864
하여	-1865
▁그걸	-1866
▁돌보	-1867
▁노력을	-1868
▁용돈을	-1869
▁앞으로는	-1870
▁박	-1871
놓고	-1872
▁최근에	-1873
▁극복하기	-1874
▁끼	-1875
▁갖고	-1876
▁모양	-1877
▁부탁	-1878
▁비관	-1879
▁언니가	-1880
▁업무가	-1881
▁누군	-1882
▁어릴	-1883
줬는데	-1884
▁사람도	-1885
▁심하게	-1886
▁떨어졌어	-1887
▁첫	-1888
▁괴롭히는	-1889
▁생각하고	-1890
▁고등학교	-1891
▁남자친구와	-1892
▁착	-1893
▁틀	-1894
하며	-1895
▁고독	-1896
▁무릎	-1897
▁의지	-1898
▁주고	-1899
▁활동	-1900
▁않을까	-1901
▁소문	-1902
으면서	-1903
▁약속을	-1904
▁행복해	-1905
▁부끄러워	-1906
▁심한	-1907
▁거지	-1908
▁헤어지	-1909
▁거짓말을	-1910
▁엄마한테	-1911
▁싶으신가요	-1912
▁누가	-1913
▁했던	-1914
▁답답해	-1915
▁질투가	-1916
▁넘어	-1917
▁바빠	-1918
▁최선	-1919
▁화해	-1920
웠는데	-1921
▁노인정	-1922
▁아드님	-1923
▁무엇일까요	-1924
▁먹는	-1925
▁반응	-1926
▁동료가	-1927
▁일하는	-1928
보니	-1929
▁문제에	-1930
▁아내는	-1931
사고	-1932
▁바로	-1933
었군요	-1934
▁때부터	-1935
▁벗어나려면	-1936
▁밀	-1937
나서	-1938
▁속이	-1939
▁애들	-1940
▁특별	-1941
▁삶이	-1942
▁지긋	-1943
▁있는지	-1944
아야	-1945
지긋	-1946
▁걸리	-1947
▁충분	-1948
▁지긋지긋	-1949
▁갑작스러운	-1950
▁나시겠어요	-1951
▁칭	-1952
▁상의	-1953
▁어린	-1954
▁재미	-1955
하다는	-1956
▁여유가	-1957
▁자신감이	-1958
치가	-1959
▁계신	-1960
▁말고	-1961
▁일만	-1962
▁잔소리	-1963
▁불안하고	-1964
▁일자리를	-1965
▁고백	-1966
▁며칠	-1967
▁아닐	-1968
▁좋았	-1969
▁진학	-1970
▁챙기	-1971
▁대학을	-1972
▁보기	-1973
▁시키	-1974
▁어느	-1975
▁얘기해	-1976
▁않을까요	-1977
력을	-1978
만한	-1979
시면	-1980
▁왔는데	-1981
▁두려우시군요	-1982
였어	-1983
간에	-1984
줘야	-1985
▁뭔가	-1986
▁가족들	-1987
▁남편을	-1988
▁눈치를	-1989
▁오늘도	-1990
▁젊었을	-1991
▁염	-1992
거나	-1993
하려	-1994
▁칭찬	-1995
▁건강관	-1996
가서	-1997
▁대신	-1998
▁분위	-1999
▁수입	-2000
▁어려워서	-2001
▁그때	-2002
▁마련	-2003
▁요양	-2004
하지만	-2005
▁싸웠어	-2006
▁좋아질	-2007
▁쌓	-2008
원이	-2009
▁전환	-2010
이라서	-2011
▁폭	-2012
▁아니야	-2013
▁친구분이	-2014
▁우울하시군요	-2015
▁호	-2016
상이	-2017
원에	-2018
▁가야	-2019
▁고혈압	-2020
▁이야기해	-2021
▁곤	-2022
▁경험	-2023
▁살아가	-2024
▁소리를	-2025
▁섭	-2026
▁웃	-2027
▁부러	-2028
▁정년	-2029
▁죄책감	-2030
▁다행이에요	-2031
과가	-2032
일까	-2033
▁동창	-2034
▁미리	-2035
▁상심이	-2036
▁경제적인	-2037
▁다니고	-2038
▁움	-2039
▁교통	-2040
▁안쓰	-2041
▁자격	-2042
▁모아둔	-2043
▁소식을	-2044
▁취업에	-2045
▁결혼하고	-2046
▁골	-2047
▁시켜	-2048
▁오지	-2049
▁고립된	-2050
▁떨어져	-2051
하셨어요	-2052
▁있었군요	-2053
▁구역	-2054
▁적응	-2055
하군요	-2056
▁달라고	-2057
▁만나서	-2058
▁험	-2059
▁사람과	-2060
▁외로움을	-2061
▁경쟁	-2062
▁나오지	-2063
▁아픈데	-2064
▁생각만	-2065
▁우울한	-2066
퇴직	-2067
▁두렵	-2068
▁않네	-2069
▁못하게	-2070
▁행동이	-2071
▁맘	-2072
▁거라	-2073
▁꿈을	-2074
▁동네	-2075
▁통해	-2076
▁모습에	-2077
▁의사가	-2078
▁털	-2079
▁같지	-2080
▁남들	-2081
▁부인	-2082
▁섭섭	-2083
▁불편해	-2084
▁않은데	-2085
▁왕따를	-2086
▁궁	-2087
고사	-2088
▁간호	-2089
▁당신	-2090
▁작은	-2091
▁걷	-2092
▁들으	-2093
▁수학	-2094
▁오르	-2095
▁하다	-2096
▁담배를	-2097
▁신경을	-2098
▁아니고	-2099
▁은퇴를	-2100
▁한다는	-2101
▁보셨나요	-2102
받는	-2103
사람	-2104
왔어	-2105
▁관련	-2106
▁관절	-2107
▁애가	-2108
▁요구	-2109
▁전부	-2110
스럽고	-2111
▁면접에서	-2112
▁놀라셨겠어요	-2113
▁뿌	-2114
시키	-2115
오는	-2116
▁친구도	-2117
▁친구들의	-2118
▁밖에	-2119
▁예상	-2120
▁이해가	-2121
▁미안하고	-2122
▁바보	-2123
▁부양	-2124
▁말씀드	-2125
리도	-2126
▁나누	-2127
▁요청	-2128
▁자책	-2129
▁진행	-2130
▁머리가	-2131
▁봤는데	-2132
▁생각이신가요	-2133
질이	-2134
▁쓰러	-2135
▁연봉	-2136
▁허무	-2137
하느라	-2138
▁그러지	-2139
▁점수가	-2140
상을	-2141
▁낙담	-2142
▁집이	-2143
▁있지만	-2144
▁충격이	-2145
▁방법으로	-2146
쳤어	-2147
▁나네	-2148
셨겠네요	-2149
▁드셨군요	-2150
▁속상하셨군요	-2151
▁밥을	-2152
▁비해	-2153
▁서러	-2154
▁안정	-2155
▁좋겠	-2156
생활을	-2157
시다니	-2158
▁관심을	-2159
▁싸워서	-2160
▁힘드신	-2161
▁상황이군요	-2162
▁괴로우시겠어요	-2163
문에	-2164
▁나보고	-2165
▁나왔어	-2166
▁된다고	-2167
▁아프고	-2168
▁했더니	-2169
▁자존	-2170
▁주식	-2171
▁마음도	-2172
▁전화를	-2173
▁교통사고	-2174
▁아들에게	-2175
▁실망스러워	-2176
▁앓	-2177
지지	-2178
하셔	-2179
▁따님	-2180
▁바꾸	-2181
▁병에	-2182
▁여쭤	-2183
▁능력이	-2184
▁받아야	-2185
▁서러워	-2186
▁직원이	-2187
▁방법에는	-2188
▁우울증이	-2189
▁욕을	-2190
▁울고	-2191
▁고마워	-2192
▁슬픔을	-2193
▁지내고	-2194
▁편하게	-2195
용이	-2196
▁가해	-2197
▁내서	-2198
▁맞지	-2199
▁생계	-2200
▁움직	-2201
▁앞두고	-2202
▁그만두고	-2203
▁지금부터	-2204
▁당황스러우시겠어요	-2205
었거든	-2206
하다가	-2207
▁몰랐어	-2208
▁상황이시군요	-2209
▁걔	-2210
혐오	-2211
▁일할	-2212
이라니	-2213
▁인생이	-2214
▁놀러	-2215
▁원망	-2216
▁세상에	-2217
▁진단을	-2218
▁집에만	-2219
▁하시나요	-2220
▁조심스러워	-2221
▁듯	-2222
이를	-2223
해요	-2224
▁기회	-2225
▁막상	-2226
▁비통	-2227
▁쉽게	-2228
▁아쉬	-2229
▁만나고	-2230
▁혼자만	-2231
▁받으시는군요	-2232
▁가면	-2233
▁드네	-2234
▁미워	-2235
▁바랄	-2236
▁어머	-2237
▁같군요	-2238
▁물어보	-2239
▁부족한	-2240
▁아내분	-2241
으신	-2242
▁알았	-2243
▁털어	-2244
▁혐오	-2245
▁꾸준히	-2246
▁불편한	-2247
▁힘드네	-2248
▁삶을	-2249
▁스스로가	-2250
▁싶었는데	-2251
거야	-2252
스크	-2253
▁모른	-2254
▁비슷	-2255
▁살았	-2256
▁모르게	-2257
▁믿었던	-2258
▁바라요	-2259
▁억울한	-2260
▁일들이	-2261
우셨군요	-2262
▁되셨군요	-2263
시니	-2264
히려	-2265
▁곤란	-2266
▁오는	-2267
▁원래	-2268
▁공부에	-2269
▁친구들이랑	-2270
▁진로에	-2271
▁할머니가	-2272
럽고	-2273
▁뿌듯	-2274
▁음식	-2275
▁조언	-2276
하시고	-2277
▁뻔	-2278
▁가기	-2279
▁들지	-2280
▁올라	-2281
▁일부	-2282
▁노후를	-2283
▁면접을	-2284
▁버려진	-2285
▁음식을	-2286
▁주변에서	-2287
▁스트레스받아	-2288
되지	-2289
▁이전	-2290
▁배신감이	-2291
조차	-2292
▁등산	-2293
▁믿음	-2294
▁완전	-2295
당하는	-2296
셨는지	-2297
▁것들이	-2298
▁그러면	-2299
▁누군가	-2300
▁되는데	-2301
▁견	-2302
담을	-2303
일이	-2304
▁지키	-2305
▁다리가	-2306
▁딸에게	-2307
▁오히려	-2308
▁말씀해주실	-2309
▁사용자님을	-2310
어도	-2311
▁계시는	-2312
▁말라고	-2313
▁성격이	-2314
▁오해를	-2315
▁행동에	-2316
▁사용자님이	-2317
▁글	-2318
생이	-2319
해져	-2320
▁반복	-2321
▁신고	-2322
▁저런	-2323
▁정리	-2324
▁귀찮아	-2325
▁생각보다	-2326
▁깜	-2327
▁빈	-2328
까봐	-2329
▁과거	-2330
▁이미	-2331
생활이	-2332
어머니	-2333
었다고	-2334
해지고	-2335
▁부모님을	-2336
▁사람들의	-2337
▁않았는데	-2338
▁외로우시군요	-2339
▁걸린	-2340
▁먹을	-2341
▁예민	-2342
▁의욕	-2343
▁가족을	-2344
▁알려주	-2345
▁죽겠어	-2346
▁혼란스러우시군요	-2347
▁곁	-2348
▁밖	-2349
해진	-2350
▁직접	-2351
▁오늘은	-2352
▁잦	-2353
▁퇴사	-2354
▁결과를	-2355
▁아이들	-2356
▁노후준비를	-2357
▁쳐	-2358
▁쓰고	-2359
▁이게	-2360
▁취급	-2361
▁국	-2362
▁카	-2363
르바	-2364
▁관해	-2365
▁느긋	-2366
▁옷을	-2367
▁친척	-2368
▁연애를	-2369
▁바랄게요	-2370
▁심해져서	-2371
▁생각이시군요	-2372
▁겨	-2373
▁낫	-2374
▁넣	-2375
아버	-2376
안이	-2377
▁고맙	-2378
▁재혼	-2379
▁직업	-2380
해져서	-2381
▁아르바	-2382
▁어쩌지	-2383
▁없었어	-2384
▁사람에게	-2385
▁열등감을	-2386
만큼	-2387
해질	-2388
▁금전	-2389
▁나눌	-2390
▁소홀	-2391
▁저번	-2392
▁아르바이트	-2393
▁아프시겠어요	-2394
봐요	-2395
▁강요	-2396
▁무섭	-2397
▁복잡	-2398
▁식구	-2399
▁올해	-2400
▁학대	-2401
▁공부도	-2402
▁좋은데	-2403
▁형편이	-2404
▁실망하셨군요	-2405
▁가진	-2406
▁궁금	-2407
▁나에	-2408
▁때도	-2409
▁애인	-2410
▁처리	-2411
▁특히	-2412
보려고	-2413
▁보여서	-2414
▁일어나	-2415
▁홀	-2416
렸을	-2417
▁소리	-2418
▁초라	-2419
되어서	-2420
▁장애가	-2421
▁줄어들	-2422
▁여자친구와	-2423
소한	-2424
지요	-2425
▁거의	-2426
▁상실	-2427
▁생길	-2428
하신가	-2429
▁미래가	-2430
미를	-2431
▁그런가	-2432
▁생각도	-2433
▁시간에	-2434
▁필요한	-2435
▁열등감이	-2436
▁예전에는	-2437
통이	-2438
▁그리	-2439
▁감사한	-2440
▁갱년기	-2441
▁신경이	-2442
▁없으시군요	-2443
놓은	-2444
치고	-2445
▁하신	-2446
▁가해자	-2447
▁결혼에	-2448
▁괜찮아	-2449
▁상태가	-2450
▁직업을	-2451
▁힘드실	-2452
▁남편분이	-2453
▁되는군요	-2454
▁부족해서	-2455
▁인간관계	-2456
었나	-2457
▁기쁜	-2458
▁몸에	-2459
했다는	-2460
▁조금만	-2461
▁하다가	-2462
▁했지만	-2463
웠겠어요	-2464
▁마비	-2465
▁모르고	-2466
▁상담을	-2467
▁흥미가	-2468
갔어	-2469
▁끝나	-2470
▁당해	-2471
▁진심	-2472
▁탈락	-2473
▁형이	-2474
▁상사에게	-2475
▁민	-2476
여행	-2477
▁비참	-2478
▁신나	-2479
▁인사	-2480
▁지낼	-2481
▁지켜	-2482
▁퇴원	-2483
났는데	-2484
▁아빠는	-2485
료를	-2486
리기	-2487
시길	-2488
▁거래	-2489
▁남의	-2490
▁따로	-2491
▁않으면	-2492
▁이대로	-2493
▁자식들은	-2494
▁자신에게	-2495
스를	-2496
트를	-2497
했을	-2498
▁나올	-2499
▁몰라서	-2500
했겠어요	-2501
▁하더라고	-2502
▁아프시군요	-2503
안을	-2504
학을	-2505
▁서류	-2506
▁육아	-2507
으로는	-2508
▁말하는	-2509
▁물건을	-2510
▁잘하고	-2511
▁해소할	-2512
▁느끼시는	-2513
▁못하겠어	-2514
▁어떠신가요	-2515
▁당황하셨군요	-2516
▁옮	-2517
감도	-2518
도가	-2519
▁날이	-2520
▁내려	-2521
▁다닐	-2522
▁빼고	-2523
▁순간	-2524
▁한번	-2525
▁바람을	-2526
▁아들을	-2527
▁일하고	-2528
▁쓰는	-2529
▁저녁	-2530
하자고	-2531
▁숙	-2532
라니	-2533
함이	-2534
▁보내고	-2535
하겠어요	-2536
▁가족에게	-2537
▁사이에서	-2538
▁그러셨군요	-2539
혀서	-2540
▁경우	-2541
▁취소	-2542
▁부장님	-2543
▁있으신	-2544
▁드시나요	-2545
▁싫어하는	-2546
▁어떨까요	-2547
▁몰랐	-2548
▁해줄	-2549
▁느낌을	-2550
▁바빠서	-2551
▁사기를	-2552
▁좋다고	-2553
▁친하게	-2554
▁나아지기	-2555
▁앞으로의	-2556
▁당황스러우시군요	-2557
다며	-2558
▁나름	-2559
▁두고	-2560
▁믿을	-2561
한다는	-2562
▁나중에	-2563
▁이번에도	-2564
▁좋아져서	-2565
기고	-2566
▁암에	-2567
▁겁	-2568
자를	-2569
▁드니	-2570
▁수능	-2571
▁있던	-2572
▁잠을	-2573
▁줘서	-2574
▁따님이	-2575
▁하라고	-2576
▁답답하고	-2577
병이	-2578
성이	-2579
▁무리	-2580
▁건강한	-2581
▁만성질환	-2582
해주시겠어요	-2583
▁굉	-2584
▁굉장	-2585
▁돈은	-2586
▁실천	-2587
▁전공	-2588
▁하셔	-2589
▁학업	-2590
▁달라서	-2591
▁됐는데	-2592
▁미래에	-2593
▁사정이	-2594
▁월급이	-2595
▁자식이	-2596
셨겠군요	-2597
▁느껴지시는군요	-2598
▁그것	-2599
▁분노	-2600
▁사업	-2601
▁고마운	-2602
▁부러워	-2603
▁폭력을	-2604
▁희망이	-2605
▁군	-2606
장에	-2607
▁나눠	-2608
▁다툼	-2609
▁만난	-2610
▁태어	-2611
▁학생	-2612
▁동기가	-2613
▁충격을	-2614
▁여쭤봐도	-2615
▁무관	-2616
▁소중	-2617
▁싫고	-2618
▁싫은	-2619
▁즐겁	-2620
▁같다고	-2621
▁계획을	-2622
▁행복한	-2623
▁마음대로	-2624
▁자세하게	-2625
▁당황스러우셨겠어요	-2626
▁뿐	-2627
▁대로	-2628
▁부하	-2629
▁통보	-2630
▁굉장히	-2631
▁너무나	-2632
▁늙어서	-2633
해야겠어	-2634
▁계신가요	-2635
▁살았는데	-2636
▁하는군요	-2637
▁지긋지긋해	-2638
▁옛	-2639
어가	-2640
▁될지	-2641
▁인한	-2642
때문에	-2643
해졌어	-2644
▁시선이	-2645
▁어떠한	-2646
▁어렸을	-2647
▁일부러	-2648
▁하겠어	-2649
▁그렇다면	-2650
과를	-2651
치는	-2652
▁고통	-2653
▁멀리	-2654
▁있나	-2655
▁죽을	-2656
▁짐이	-2657
▁화장	-2658
▁걸려서	-2659
▁나이를	-2660
▁수입이	-2661
▁재산을	-2662
▁아드님이	-2663
됐어	-2664
▁계약	-2665
▁더는	-2666
▁청소	-2667
▁친구들도	-2668
▁당황스럽고	-2669
대체	-2670
받지	-2671
▁든든	-2672
시는데	-2673
▁도대체	-2674
▁당황하셨겠어요	-2675
▁까	-2676
▁바뀌	-2677
▁살이	-2678
▁쳐다	-2679
해주는	-2680
▁버렸어	-2681
▁허리가	-2682
▁접	-2683
실에	-2684
▁본인의	-2685
▁외로운	-2686
▁현재의	-2687
▁생각이군요	-2688
▁어려우시군요	-2689
▁병문	-2690
▁의식	-2691
▁적성	-2692
금으로	-2693
했지만	-2694
▁갈등이	-2695
▁말씀을	-2696
▁병원을	-2697
▁아닐까	-2698
▁어려우	-2699
▁엄마랑	-2700
▁했군요	-2701
▁건강하게	-2702
▁되었는데	-2703
▁크시군요	-2704
▁정신적으로	-2705
▁힘드셨군요	-2706
▁낼	-2707
이면	-2708
책을	-2709
▁달래	-2710
▁많고	-2711
▁장례	-2712
했더니	-2713
▁무관심	-2714
▁슬프네	-2715
▁충분히	-2716
▁앉	-2717
▁능력	-2718
▁장난	-2719
했거든	-2720
▁보니까	-2721
▁퇴직을	-2722
▁뜻	-2723
▁남지	-2724
▁대답	-2725
▁이루	-2726
보다는	-2727
해지는	-2728
▁그랬어	-2729
▁실패한	-2730
▁좋을까	-2731
▁하려면	-2732
▁시어머니	-2733
롭게	-2734
시지	-2735
이는	-2736
▁공무	-2737
▁봐서	-2738
▁염려	-2739
▁일단	-2740
▁잘할	-2741
▁모임에	-2742
▁못할까	-2743
▁부담이	-2744
▁사업이	-2745
▁어려울	-2746
▁인생을	-2747
▁괴롭힘을	-2748
▁생각해서	-2749
▁가슴	-2750
▁가입	-2751
다니까	-2752
장에서	-2753
▁분들이	-2754
▁자격증	-2755
▁하루하	-2756
지셨군요	-2757
하시나요	-2758
▁잔소리를	-2759
하나	-2760
▁번도	-2761
▁나이도	-2762
▁눈치가	-2763
▁상대방	-2764
▁주말에	-2765
▁준비한	-2766
▁하루하루	-2767
▁생각하세요	-2768
▁힘들겠어요	-2769
▁답답하시겠어요	-2770
▁기운	-2771
▁비밀	-2772
▁이러한	-2773
▁짜증을	-2774
▁생각이세요	-2775
▁후회되시는군요	-2776
▁근무	-2777
▁명절	-2778
▁허리	-2779
▁확인	-2780
겠지만	-2781
▁돈으로	-2782
▁대처하셨어요	-2783
▁갔어	-2784
▁내고	-2785
▁눈이	-2786
▁덜어	-2787
▁보게	-2788
▁하며	-2789
▁느끼게	-2790
▁싶지만	-2791
▁팀장님	-2792
▁병원비를	-2793
▁속상하겠어요	-2794
▁보낼	-2795
▁이것	-2796
이나마	-2797
▁심해서	-2798
▁잃어버	-2799
▁좋을지	-2800
▁필요할	-2801
세가	-2802
셨던	-2803
▁건가	-2804
이군요	-2805
하기로	-2806
▁사실이	-2807
▁애인이	-2808
▁중인데	-2809
마저	-2810
제로	-2811
▁꺼내	-2812
▁배려	-2813
▁영양	-2814
으니까	-2815
▁결혼한	-2816
▁당했어	-2817
▁불행한	-2818
봐야겠어	-2819
▁느껴져서	-2820
▁서글	-2821
▁쓰지	-2822
장애가	-2823
▁가족과	-2824
▁같다는	-2825
▁위해선	-2826
▁실망했어	-2827
▁큰일이야	-2828
▁한심하게	-2829
▁노후준비가	-2830
▁상황에서는	-2831
▁짓	-2832
▁짝	-2833
▁터	-2834
용을	-2835
▁몸을	-2836
▁항암	-2837
▁혈압	-2838
에서도	-2839
해주실	-2840
▁들어오	-2841
▁말해야	-2842
▁비슷한	-2843
▁아들의	-2844
▁스트레스야	-2845
▁프로젝트를	-2846
▁걸렸	-2847
▁기간	-2848
▁씨가	-2849
▁존재	-2850
▁이겨내	-2851
▁주위에	-2852
▁털어놓	-2853
▁무엇인가요	-2854
▁뽑	-2855
▁달리	-2856
▁말할	-2857
셨네요	-2858
▁그리고	-2859
▁마음의	-2860
▁소개팅	-2861
▁싶었던	-2862
▁아무런	-2863
▁이러다	-2864
신데	-2865
▁해준	-2866
겠다는	-2867
었으면	-2868
하다니	-2869
▁배신당한	-2870
▁병원비가	-2871
▁우울하고	-2872
▁조금이나마	-2873
▁긍	-2874
▁쪽	-2875
리면	-2876
시게	-2877
▁다치	-2878
▁들려	-2879
▁병을	-2880
▁목표가	-2881
으신가요	-2882
▁가족들을	-2883
▁걱정되고	-2884
▁사랑하는	-2885
문을	-2886
▁당한	-2887
▁식사	-2888
졌는데	-2889
▁체력이	-2890
▁직원들이	-2891
▁퇴직하고	-2892
▁몹	-2893
▁트	-2894
겨서	-2895
길래	-2896
▁나갈	-2897
▁봤어	-2898
▁사별	-2899
▁아끼	-2900
▁외출	-2901
▁다르게	-2902
▁다행히	-2903
▁사과를	-2904
▁사소한	-2905
▁슬프다	-2906
▁없으면	-2907
▁했다고	-2908
하더라고	-2909
▁아이들을	-2910
▁안타까워	-2911
▁후회하고	-2912
▁건강관리를	-2913
▁친구들과의	-2914
▁각	-2915
▁핸	-2916
없어	-2917
▁긍정	-2918
▁뒤처	-2919
▁똑같	-2920
▁불러	-2921
▁우선	-2922
▁차별	-2923
로부터	-2924
으세요	-2925
▁이상한	-2926
▁있었던	-2927
▁동료들이	-2928
구나	-2929
년에	-2930
신이	-2931
▁곁에	-2932
▁곳에	-2933
▁다녔	-2934
▁사춘	-2935
▁슬펐	-2936
▁영어	-2937
▁편이	-2938
▁나가서	-2939
▁집안일을	-2940
▁남자친구랑	-2941
▁아이들에게	-2942
▁썼	-2943
▁개인	-2944
▁나온	-2945
▁시절	-2946
▁심각	-2947
▁유산	-2948
▁환경	-2949
▁관절염	-2950
▁도와줄	-2951
▁당황스러웠어	-2952
거리	-2953
릴까	-2954
▁데려	-2955
▁아플	-2956
▁젊을	-2957
▁죽는	-2958
▁핸드	-2959
▁걱정하고	-2960
▁코로나로	-2961
▁테	-2962
▁걸려	-2963
▁구할	-2964
▁대단	-2965
▁대비	-2966
▁손을	-2967
▁좋고	-2968
면서도	-2969
셨으면	-2970
▁아이디어	-2971
▁건강검진을	-2972
▁되시겠어요	-2973
와의	-2974
▁가라	-2975
▁돌봐	-2976
▁흥분	-2977
으려고	-2978
으셔서	-2979
▁공무원	-2980
▁노후에	-2981
▁성가셔	-2982
▁원하던	-2983
▁이후로	-2984
▁핸드폰	-2985
▁딱	-2986
▁삶에	-2987
▁안되	-2988
▁진지	-2989
▁취미	-2990
▁피우	-2991
▁결혼할	-2992
▁남편도	-2993
▁다가오	-2994
▁있었을	-2995
▁불편해서	-2996
▁힘드신가	-2997
▁상하셨군요	-2998
▁티	-2999
▁오면	-3000
▁지지	-3001
생활에	-3002
줬으면	-3003
▁감사해	-3004
▁게임을	-3005
▁두려운	-3006
▁때문인	-3007
▁모두가	-3008
▁본인이	-3009
▁수밖에	-3010
▁실수로	-3011
▁친구와의	-3012
했나	-3013
▁느낄	-3014
▁대기	-3015
▁받게	-3016
▁일등	-3017
▁홀로	-3018
건가요	-3019
▁건강도	-3020
▁대하는	-3021
▁만들어	-3022
▁생각할	-3023
▁생활비	-3024
▁생활에	-3025
▁어려움	-3026
▁고마움을	-3027
▁되었군요	-3028
▁철	-3029
▁감당	-3030
▁확실	-3031
▁되셔서	-3032
▁없나요	-3033
▁주세요	-3034
▁해주고	-3035
▁고민하고	-3036
▁상처받았어	-3037
▁넉	-3038
▁뛰	-3039
받고	-3040
▁냈어	-3041
▁넉넉	-3042
▁몹시	-3043
▁되니까	-3044
▁말하고	-3045
▁사고로	-3046
▁이겨낼	-3047
▁정신이	-3048
▁조언을	-3049
보셨나요	-3050
▁도와주지	-3051
▁쓸모없는	-3052
▁해결하면	-3053
볼까	-3054
시킬	-3055
지니	-3056
▁모자	-3057
▁무거	-3058
▁키워	-3059
들과의	-3060
스럽네	-3061
▁바람에	-3062
▁싶다고	-3063
▁싸우고	-3064
▁연락도	-3065
▁아내분이	-3066
▁자녀들이	-3067
▁당혹스러워	-3068
▁깊	-3069
▁메	-3070
호회	-3071
▁노래	-3072
▁듣지	-3073
▁손해	-3074
▁와이	-3075
▁공부가	-3076
▁않으니	-3077
▁알아서	-3078
▁힘들었	-3079
▁드는군요	-3080
▁해야겠어	-3081
▁느끼시나요	-3082
▁돌아가셔서	-3083
▁슬프겠어요	-3084
▁뇌	-3085
고를	-3086
화가	-3087
▁돌려	-3088
▁마무	-3089
▁말지	-3090
▁봐야	-3091
▁언젠	-3092
▁관계에	-3093
▁불쌍해	-3094
▁살아갈	-3095
▁시선을	-3096
▁점에서	-3097
▁피해를	-3098
▁했거든	-3099
되시는군요	-3100
과는	-3101
▁들을	-3102
▁마주	-3103
▁만드	-3104
▁일어	-3105
▁편찮	-3106
▁것으로	-3107
▁결혼식	-3108
▁동호회	-3109
▁보여요	-3110
▁소식에	-3111
▁소식이	-3112
▁솔직히	-3113
▁여기저	-3114
▁있거든	-3115
▁자기가	-3116
▁나왔는데	-3117
▁이번에는	-3118
▁훨	-3119
부로	-3120
▁검사	-3121
▁모은	-3122
▁바꿀	-3123
▁바쁜	-3124
▁식단	-3125
▁이별	-3126
▁지출	-3127
▁훨씬	-3128
▁가기로	-3129
▁다리를	-3130
▁사업을	-3131
▁어렵게	-3132
▁업무에	-3133
▁와이프	-3134
▁있다니	-3135
▁있어요	-3136
▁특별한	-3137
▁하나요	-3138
▁있었는지	-3139
▁불편하시겠어요	-3140
▁외로우시겠어요	-3141
▁컴	-3142
▁토	-3143
건이	-3144
바라	-3145
▁경찰	-3146
▁나지	-3147
▁무능	-3148
▁살지	-3149
▁삼십	-3150
▁신이	-3151
▁앓고	-3152
▁연금	-3153
▁허락	-3154
▁안타깝	-3155
▁지금도	-3156
▁직장이	-3157
▁최선을	-3158
▁충격받	-3159
▁현실이	-3160
▁며느리가	-3161
▁엄마에게	-3162
▁낯	-3163
더군	-3164
지게	-3165
▁말만	-3166
▁보러	-3167
▁점심	-3168
▁증오	-3169
당했어	-3170
버려서	-3171
▁뒷바라	-3172
▁반에서	-3173
▁사람의	-3174
▁세상이	-3175
▁않아도	-3176
▁엄마를	-3177
▁지내는	-3178
▁드셨나요	-3179
▁어머니께	-3180
▁선생님께서	-3181
▁절망적이야	-3182
려는	-3183
습관	-3184
▁금방	-3185
▁딸의	-3186
▁비싼	-3187
▁이십	-3188
▁가까운	-3189
▁찾아오	-3190
▁친했던	-3191
▁판정을	-3192
▁험담을	-3193
▁화가나	-3194
▁가족들은	-3195
▁슬프셨군요	-3196
가고	-3197
▁걸어	-3198
▁사진	-3199
▁써서	-3200
▁역할	-3201
▁외모	-3202
▁커서	-3203
▁한데	-3204
디스크	-3205
증으로	-3206
▁데이트	-3207
▁드시는	-3208
▁들면서	-3209
▁벌어야	-3210
▁태도가	-3211
▁친구들한테	-3212
▁헛	-3213
동산	-3214
방을	-3215
화를	-3216
▁미루	-3217
▁수업	-3218
▁옛날	-3219
▁자리	-3220
갔는데	-3221
했으면	-3222
▁누나가	-3223
▁맛있는	-3224
▁싫어서	-3225
▁옆에서	-3226
▁의견을	-3227
▁있어도	-3228
▁떨어지고	-3229
▁좋겠네요	-3230
나게	-3231
라면	-3232
로는	-3233
자는	-3234
▁느꼈	-3235
▁등록	-3236
▁보람	-3237
▁지속	-3238
▁가라앉	-3239
▁결정을	-3240
▁노후자	-3241
▁뒤에서	-3242
▁먹어서	-3243
▁무릎이	-3244
▁없을까	-3245
▁의견이	-3246
▁언제까지	-3247
▁싫으시군요	-3248
▁가능	-3249
▁권유	-3250
▁살기	-3251
▁싶고	-3252
▁어색	-3253
▁일주	-3254
할게요	-3255
▁괴로운	-3256
▁부담을	-3257
▁상사의	-3258
▁선배가	-3259
▁어렵고	-3260
▁어쩌면	-3261
▁운동도	-3262
▁자금을	-3263
▁부장님이	-3264
▁나면	-3265
▁난감	-3266
▁참고	-3267
실에서	-3268
▁계기가	-3269
▁마음은	-3270
▁시험에	-3271
▁잘못된	-3272
▁지키지	-3273
▁집중이	-3274
▁회사의	-3275
하신가요	-3276
▁싸웠는데	-3277
▁꼴	-3278
▁밝	-3279
▁샀	-3280
▁퍼	-3281
가지	-3282
름을	-3283
일을	-3284
저히	-3285
책이	-3286
퓨터	-3287
▁비웃	-3288
▁지각	-3289
는데도	-3290
▁사장님	-3291
▁의욕이	-3292
▁잘못을	-3293
▁컴퓨터	-3294
▁은퇴하고	-3295
▁회의감이	-3296
려야	-3297
원을	-3298
▁낮아	-3299
▁빠져	-3300
▁쉬고	-3301
▁안달	-3302
하셨나	-3303
▁서운해	-3304
▁그렇다고	-3305
▁남편이랑	-3306
▁생각하게	-3307
▁자식들도	-3308
▁자식들한테	-3309
▁대처하셨나요	-3310
▁뺏	-3311
▁익	-3312
로서	-3313
부모	-3314
성을	-3315
합격	-3316
▁강아	-3317
▁바꿔	-3318
▁보지	-3319
▁쓰여	-3320
▁전달	-3321
▁말해서	-3322
▁얼굴을	-3323
▁엄마의	-3324
▁태도에	-3325
▁하다니	-3326
했었는데	-3327
▁초조하시군요	-3328
냄새	-3329
▁가르	-3330
▁도전	-3331
▁마지	-3332
▁물려	-3333
▁비난	-3334
▁세월	-3335
▁예정	-3336
▁탓인	-3337
더라도	-3338
▁계셔서	-3339
▁기억이	-3340
▁놀랐어	-3341
▁아닌지	-3342
▁있어야	-3343
▁학교를	-3344
▁어머니께서	-3345
▁힘드시겠군요	-3346
▁혼란스러우시겠어요	-3347
엄마	-3348
음을	-3349
했지	-3350
▁꿈이	-3351
▁남아	-3352
▁놓은	-3353
▁모으	-3354
▁안도	-3355
▁조급	-3356
▁화목	-3357
▁회식	-3358
▁오빠가	-3359
▁자리를	-3360
▁피하는	-3361
▁환멸을	-3362
▁걱정되는	-3363
▁구역질이	-3364
▁따돌리는	-3365
▁여기저기	-3366
▁정년퇴직	-3367
▁진심으로	-3368
▁억울하시군요	-3369
▁흘	-3370
가가	-3371
보면	-3372
봐서	-3373
있어	-3374
▁종일	-3375
▁체육	-3376
▁최종	-3377
▁가게를	-3378
▁배우자	-3379
▁부족해	-3380
▁아닌가	-3381
▁자꾸만	-3382
▁학원에	-3383
▁아니라고	-3384
기지	-3385
▁거로	-3386
▁글쎄	-3387
▁다퉜	-3388
▁달랠	-3389
▁담임	-3390
▁어째	-3391
▁정보	-3392
▁줄은	-3393
▁추천	-3394
▁폐암	-3395
▁혼내	-3396
▁남들은	-3397
▁마지막	-3398
▁보이고	-3399
▁싸우는	-3400
▁아침에	-3401
▁엄마와	-3402
▁집사람	-3403
▁하느라	-3404
▁회사는	-3405
▁힘들다	-3406
▁계시네요	-3407
▁억울하고	-3408
▁진지하게	-3409
▁불편하시군요	-3410
▁훔	-3411
사에	-3412
조건	-3413
▁벌고	-3414
▁비싸	-3415
▁악의	-3416
▁않기	-3417
▁집은	-3418
▁결혼은	-3419
▁부끄럽	-3420
▁부동산	-3421
▁흥미를	-3422
▁솔직하게	-3423
날이	-3424
님의	-3425
던데	-3426
라리	-3427
▁놀고	-3428
▁누워	-3429
▁명예	-3430
▁여태	-3431
▁은행	-3432
▁이사	-3433
▁해외	-3434
당해서	-3435
▁가슴이	-3436
▁설명해	-3437
▁지원을	-3438
▁질환이	-3439
▁차라리	-3440
▁학원을	-3441
▁성적으로	-3442
포즈	-3443
▁겨우	-3444
▁영향	-3445
▁찾고	-3446
▁풀어	-3447
▁한두	-3448
▁무조건	-3449
▁생각은	-3450
▁생각한	-3451
▁애들은	-3452
▁생각하지	-3453
▁이상하게	-3454
▁좋겠는데	-3455
▁생각인가요	-3456
▁멈	-3457
▁푸	-3458
하러	-3459
▁가만	-3460
▁배운	-3461
▁이용	-3462
▁지쳐	-3463
▁괴로우	-3464
▁다쳐서	-3465
▁사고를	-3466
▁싶으신	-3467
▁당황했어	-3468
▁살아가야	-3469
▁꽤	-3470
▁압	-3471
내고	-3472
되었	-3473
림을	-3474
시에	-3475
▁가치	-3476
▁사기	-3477
▁어른	-3478
▁이력	-3479
▁입고	-3480
▁잠도	-3481
▁적은	-3482
▁지적	-3483
▁참여	-3484
신다니	-3485
▁걸까요	-3486
▁곳에서	-3487
▁들수록	-3488
▁적어서	-3489
▁치매가	-3490
▁시도해볼	-3491
▁학교폭력을	-3492
▁엉	-3493
▁곳도	-3494
▁냄새	-3495
▁되나	-3496
▁가는데	-3497
▁걱정도	-3498
▁괜찮은	-3499
▁점수를	-3500
▁즐거운	-3501
▁챙겨주	-3502
▁되겠어요	-3503
▁비관적인	-3504
▁자식들을	-3505
▁나셨겠어요	-3506
▁생기셨군요	-3507
▁자녀분들이	-3508
다툼	-3509
망이	-3510
시켜	-3511
▁옆에	-3512
▁위축	-3513
▁중간	-3514
▁찾을	-3515
봤는데	-3516
▁다니던	-3517
▁때까지	-3518
▁말다툼	-3519
▁말하지	-3520
▁시험이	-3521
▁아내랑	-3522
▁일주일	-3523
▁어머니의	-3524
세를	-3525
져야	-3526
학생	-3527
▁말은	-3528
▁먹어	-3529
▁발견	-3530
▁부르	-3531
▁사주	-3532
▁싫다	-3533
▁적어	-3534
▁화도	-3535
졌군요	-3536
▁개선할	-3537
▁마무리	-3538
▁보이지	-3539
▁어이가	-3540
▁적성에	-3541
▁전부터	-3542
▁전에는	-3543
▁치료비	-3544
▁불안함을	-3545
▁시험에서	-3546
▁아프셔서	-3547
되시겠어요	-3548
▁당황스러우셨군요	-3549
▁굴	-3550
▁낸	-3551
▁멍	-3552
보호	-3553
부를	-3554
인을	-3555
▁공황	-3556
▁과잉	-3557
▁멋진	-3558
▁보답	-3559
▁아마	-3560
▁안심	-3561
▁없게	-3562
▁오십	-3563
▁자유	-3564
▁주로	-3565
▁참석	-3566
▁친절	-3567
▁풀릴	-3568
▁드시나	-3569
▁바라는	-3570
▁소문이	-3571
▁갱년기가	-3572
▁병문안을	-3573
▁분위기가	-3574
▁만족스러워	-3575
▁억울하시겠어요	-3576
▁둘이	-3577
쳤는데	-3578
▁가족분	-3579
▁노력한	-3580
▁차이가	-3581
▁태어나	-3582
▁혼자가	-3583
▁효과가	-3584
▁괴롭혀서	-3585
▁처음으로	-3586
▁걱정스러워	-3587
▁당황스러운	-3588
▁만들었나요	-3589
▁찍	-3590
▁대체	-3591
▁딸을	-3592
▁못난	-3593
▁완치	-3594
▁조용	-3595
▁진정	-3596
▁혼나	-3597
▁혼날	-3598
▁황당	-3599
으라고	-3600
▁당연히	-3601
▁들어갈	-3602
▁모양이	-3603
▁알아보	-3604
▁탓이야	-3605
▁할아버	-3606
▁되셨나요	-3607
▁모르겠고	-3608
▁사람들도	-3609
▁이러다가	-3610
▁이제부터	-3611
계를	-3612
아빠	-3613
지로	-3614
표를	-3615
▁나타	-3616
▁내는	-3617
▁늘어	-3618
▁손녀	-3619
▁심정	-3620
▁아예	-3621
▁아팠	-3622
▁조별	-3623
▁줄이	-3624
▁가난한	-3625
▁결혼이	-3626
▁노년에	-3627
▁다가가	-3628
▁들으니	-3629
▁말았어	-3630
▁인생은	-3631
▁아버지의	-3632
▁어떠세요	-3633
▁컸	-3634
시간	-3635
약을	-3636
이랑	-3637
지네	-3638
▁머리	-3639
▁미치	-3640
▁이기	-3641
▁재촉	-3642
▁조절	-3643
습니다	-3644
하셨을	-3645
▁사는데	-3646
▁생각나	-3647
▁아기를	-3648
▁아니면	-3649
▁아들과	-3650
▁어디서	-3651
▁불안감을	-3652
▁자식들의	-3653
▁팀장님이	-3654
▁포기하고	-3655
▁나아지려면	-3656
▁없으신가요	-3657
▁뉴	-3658
님께	-3659
당히	-3660
▁년째	-3661
▁단절	-3662
▁막내	-3663
▁만남	-3664
▁분야	-3665
▁불쾌	-3666
▁입학	-3667
▁차이	-3668
해주고	-3669
▁가족은	-3670
▁거래처	-3671
▁만나지	-3672
▁승진을	-3673
▁나한테만	-3674
▁대학교에	-3675
▁모르겠네	-3676
▁무시해서	-3677
▁생각했던	-3678
▁준비하고	-3679
▁해소하기	-3680
▁스트레스로	-3681
▁어떠셨나요	-3682
과에	-3683
력도	-3684
시험	-3685
실을	-3686
연히	-3687
▁도망	-3688
▁뭐라	-3689
▁보다	-3690
▁삶의	-3691
▁은근	-3692
▁자고	-3693
▁지갑	-3694
에서는	-3695
▁그대로	-3696
▁떨어진	-3697
▁보려고	-3698
▁야근을	-3699
▁어째서	-3700
▁정도야	-3701
▁일이네요	-3702
▁해결하는	-3703
▁힘들다고	-3704
▁있으셨어요	-3705
▁혼란스러우	-3706
녀석	-3707
선생	-3708
운데	-3709
전에	-3710
종일	-3711
▁과외	-3712
▁다리	-3713
▁당첨	-3714
▁비결	-3715
▁없다	-3716
▁체중	-3717
으로서	-3718
했는지	-3719
▁불만이	-3720
▁불행해	-3721
▁성적에	-3722
▁해결될	-3723
하셨는데	-3724
▁그러는지	-3725
▁없으니까	-3726
▁대인관계가	-3727
▁드시겠어요	-3728
▁좋으셨겠어요	-3729
르고	-3730
목이	-3731
박을	-3732
이어	-3733
점을	-3734
▁급여	-3735
▁큰돈	-3736
었지만	-3737
▁기다리	-3738
▁대화할	-3739
▁똑같은	-3740
▁아파트	-3741
▁알았어	-3742
▁학업에	-3743
▁한다니	-3744
▁활동을	-3745
▁나는군요	-3746
▁안쓰러워	-3747
▁하셨는데	-3748
▁프로젝트가	-3749
▁후회하시는군요	-3750
▁땅	-3751
품을	-3752
▁견디	-3753
▁녀석	-3754
▁높은	-3755
▁얼른	-3756
▁이웃	-3757
▁잠이	-3758
▁취약	-3759
▁풀리	-3760
거군요	-3761
시간에	-3762
▁가정을	-3763
▁구역질	-3764
▁당할까	-3765
▁불합격	-3766
▁신입사	-3767
▁아들은	-3768
▁않았을	-3769
▁죽었어	-3770
▁특별히	-3771
▁과잉보호	-3772
▁그러니까	-3773
▁부분에서	-3774
▁있으신가	-3775
▁충격이야	-3776
▁행복하게	-3777
나가	-3778
실까	-3779
어를	-3780
점이	-3781
▁분의	-3782
▁수는	-3783
▁싶을	-3784
▁예뻐	-3785
▁프러	-3786
하세요	-3787
▁경험이	-3788
▁나가는	-3789
▁떠났어	-3790
▁말하면	-3791
▁맞아서	-3792
▁사춘기	-3793
▁아내도	-3794
▁외로우	-3795
▁하더라	-3796
▁항암치	-3797
▁생활비가	-3798
▁않으려면	-3799
▁프러포즈	-3800
▁한심하다고	-3801
▁줘	-3802
▁활	-3803
감에	-3804
제가	-3805
▁기쁨	-3806
▁많았	-3807
▁쉬는	-3808
▁위암	-3809
▁위험	-3810
▁의존	-3811
▁익숙	-3812
▁있다	-3813
▁자체	-3814
▁초기	-3815
질까요	-3816
하기만	-3817
▁가만히	-3818
▁무섭고	-3819
▁방안이	-3820
▁싫다고	-3821
▁어디가	-3822
하는군요	-3823
▁시작했어	-3824
▁준비해야	-3825
그램	-3826
만이	-3827
신지	-3828
▁보냈	-3829
▁인터	-3830
▁중독	-3831
▁노인이	-3832
▁떠나서	-3833
▁미래를	-3834
▁반응이	-3835
▁사실에	-3836
▁살아서	-3837
▁죄송한	-3838
▁즐겁게	-3839
▁해주지	-3840
▁모임에서	-3841
▁부끄러운	-3842
하시겠군요	-3843
▁헤어지자고	-3844
▁묻	-3845
대에	-3846
었지	-3847
▁다닌	-3848
▁믿지	-3849
▁보태	-3850
▁소용	-3851
▁제출	-3852
▁나오는	-3853
▁다녀오	-3854
▁답답한	-3855
▁생계를	-3856
▁업무량	-3857
▁있도록	-3858
▁죄송해	-3859
▁직업이	-3860
▁초조한	-3861
▁친해지	-3862
▁부모님에게	-3863
▁침	-3864
간호	-3865
증을	-3866
▁내지	-3867
▁년이	-3868
▁늙은	-3869
▁떨쳐	-3870
▁마누	-3871
▁맞춰	-3872
▁수준	-3873
▁시댁	-3874
▁운전	-3875
▁작성	-3876
▁검진을	-3877
▁곳으로	-3878
▁마시고	-3879
▁선택을	-3880
▁증상이	-3881
▁함부로	-3882
▁않았으면	-3883
▁친구인데	-3884
▁해결해야	-3885
▁후회되는	-3886
▁지금이라도	-3887
▁둔	-3888
겠다	-3889
겨워	-3890
동이	-3891
▁과연	-3892
▁그녀	-3893
▁남겨	-3894
▁놀랐	-3895
▁놀아	-3896
▁마을	-3897
▁배가	-3898
▁써야	-3899
▁일들	-3900
▁자금	-3901
▁절대	-3902
▁점수	-3903
▁줄일	-3904
▁힘내	-3905
회에서	-3906
▁가까워	-3907
▁만나면	-3908
▁많다고	-3909
▁못하니	-3910
▁식으로	-3911
▁올라서	-3912
▁하시고	-3913
▁허탈해	-3914
▁들었군요	-3915
▁받으셔서	-3916
▁생각이야	-3917
하시겠네요	-3918
▁대인관계에	-3919
▁행복하시겠어요	-3920
▁에	-3921
▁읽	-3922
같아	-3923
약이	-3924
이래	-3925
▁길을	-3926
▁늦어	-3927
▁설득	-3928
▁신혼	-3929
▁없나	-3930
▁채용	-3931
▁최고	-3932
▁하늘	-3933
▁검사를	-3934
▁관심도	-3935
▁괴롭혔	-3936
▁그것도	-3937
▁동생을	-3938
▁두렵고	-3939
▁며느리	-3940
▁믿음이	-3941
▁사귀는	-3942
▁싸우게	-3943
▁일에는	-3944
▁일인데	-3945
▁일자리	-3946
▁잃었어	-3947
▁장애를	-3948
▁칭찬을	-3949
▁한심한	-3950
▁결혼식에	-3951
▁엄청나게	-3952
▁이혼하고	-3953
▁정신질환	-3954
▁교통사고로	-3955
받을	-3956
자니	-3957
▁공감	-3958
▁낮은	-3959
▁보살	-3960
▁식당	-3961
▁일한	-3962
▁잠깐	-3963
▁차를	-3964
되었어	-3965
▁눈물만	-3966
▁다녀야	-3967
▁발표를	-3968
▁보면서	-3969
▁아프니	-3970
▁주셔서	-3971
▁치매에	-3972
으로부터	-3973
▁가족들의	-3974
▁계시나요	-3975
▁남았는데	-3976
▁다니는데	-3977
▁없었는데	-3978
으시는군요	-3979
▁자녀들에게	-3980
▁쓴	-3981
리게	-3982
자리	-3983
직을	-3984
▁곳은	-3985
▁나을	-3986
▁돈만	-3987
▁발생	-3988
▁방해	-3989
▁어이	-3990
▁저도	-3991
▁전문	-3992
▁친정	-3993
▁결혼도	-3994
▁늘어나	-3995
▁마비된	-3996
▁먹으면	-3997
▁부인이	-3998
▁여유로	-3999
▁인터넷	-4000
▁준비도	-4001
▁취직을	-4002
▁했나요	-4003
▁괴롭히던	-4004
▁아이에게	-4005
▁일했는데	-4006
되면	-4007
될까	-4008
▁년을	-4009
▁버는	-4010
▁보며	-4011
▁볼까	-4012
▁신청	-4013
▁육십	-4014
▁하려	-4015
▁다이어	-4016
▁대출을	-4017
▁무시해	-4018
▁병간호	-4019
▁보이는	-4020
▁사고가	-4021
▁살아온	-4022
▁창피해	-4023
▁편안한	-4024
▁하셨어	-4025
▁두려움을	-4026
▁들었는데	-4027
▁사람이야	-4028
▁있으셔서	-4029
스럽겠어요	-4030
▁힘드신가요	-4031
▁않으시겠어요	-4032
▁조심스러우시군요	-4033
분을	-4034
연을	-4035
집을	-4036
▁겁이	-4037
▁몸은	-4038
▁빚을	-4039
▁싸운	-4040
▁아까	-4041
▁아껴	-4042
▁지방	-4043
▁것보다	-4044
▁그러는	-4045
▁그렇고	-4046
▁돌봐야	-4047
▁등산을	-4048
▁사이에	-4049
▁소중한	-4050
▁수치가	-4051
▁싫은데	-4052
▁좋았어	-4053
▁준비로	-4054
▁후배가	-4055
▁그만두게	-4056
▁상황이라	-4057
▁준비하는	-4058
▁의심스러워	-4059
▁있으실까요	-4060
▁해결하려면	-4061
▁혼란스러운	-4062
받은	-4063
치게	-4064
▁늦은	-4065
▁뒤로	-4066
▁봐도	-4067
▁수행	-4068
▁심란	-4069
▁역시	-4070
▁의문	-4071
▁이성	-4072
▁정작	-4073
▁지경	-4074
▁직무	-4075
당하게	-4076
졌다고	-4077
▁다툼이	-4078
▁쉽지가	-4079
▁전화가	-4080
▁평생을	-4081
▁남편분과	-4082
▁노력하고	-4083
▁뒷바라지	-4084
▁아니지만	-4085
▁어머니를	-4086
▁우울증으로	-4087
▁쓰이시는군요	-4088
▁굳	-4089
▁흐	-4090
대를	-4091
마디	-4092
벌이	-4093
에만	-4094
화로	-4095
▁갔다	-4096
▁들은	-4097
▁떠난	-4098
▁망설	-4099
▁물론	-4100
▁산책	-4101
▁편해	-4102
더라면	-4103
▁게임만	-4104
▁공부할	-4105
▁교육을	-4106
▁아빠랑	-4107
▁언제나	-4108
▁월급을	-4109
▁죽음에	-4110
▁공부하는	-4111
▁배신감을	-4112
▁부모님도	-4113
▁상황인지	-4114
▁요양원에	-4115
▁혐오스러워	-4116
▁격	-4117
값이	-4118
대서	-4119
해준	-4120
▁대리	-4121
▁대우	-4122
▁만났	-4123
▁뭐든	-4124
▁없애	-4125
▁외국	-4126
▁줬어	-4127
▁했나	-4128
들끼리	-4129
▁걸렸어	-4130
▁남자가	-4131
▁도저히	-4132
▁오르지	-4133
▁해야지	-4134
▁명예퇴직	-4135
▁있으니까	-4136
▁해보셨나요	-4137
▁남자친구에게	-4138
▁말씀해주세요	-4139
마자	-4140
발을	-4141
분과	-4142
의를	-4143
▁나은	-4144
▁늙어	-4145
▁다친	-4146
▁동무	-4147
▁딸과	-4148
▁떠넘	-4149
▁말로	-4150
▁사정	-4151
▁설레	-4152
▁약간	-4153
▁없지	-4154
▁예쁘	-4155
▁잃어	-4156
▁잦은	-4157
▁평가	-4158
자마자	-4159
▁기분은	-4160
▁나가고	-4161
▁당뇨가	-4162
▁생기는	-4163
▁아직은	-4164
▁재미가	-4165
▁하기가	-4166
이었는데	-4167
▁결혼해서	-4168
▁떨어지는	-4169
▁모아놓은	-4170
▁불안해서	-4171
▁자식에게	-4172
으시겠어요	-4173
▁사람들과의	-4174
▁미안하시군요	-4175
▁농	-4176
▁협	-4177
▁가질	-4178
▁금액	-4179
▁들면	-4180
▁때만	-4181
▁방어	-4182
▁음악	-4183
▁재밌	-4184
▁찾으	-4185
▁탈모	-4186
으로도	-4187
▁났군요	-4188
▁두려우	-4189
▁들어주	-4190
▁상대가	-4191
▁새엄마	-4192
▁없다니	-4193
▁오해가	-4194
▁이상이	-4195
▁인생에	-4196
▁잘해서	-4197
▁조금씩	-4198
▁나빠져서	-4199
▁무서워서	-4200
▁상황이야	-4201
▁아프다고	-4202
▁안타까운	-4203
▁좋아졌어	-4204
하셨겠네요	-4205
▁걱정했는데	-4206
▁노력했는데	-4207
▁하루하루가	-4208
▁힘들어하는	-4209
▁걱정하시는군요	-4210
▁꼬	-4211
내는	-4212
년이	-4213
도를	-4214
말을	-4215
우고	-4216
전히	-4217
▁상관	-4218
▁전학	-4219
▁추억	-4220
하거든	-4221
▁숙제를	-4222
▁완전히	-4223
▁의미가	-4224
▁인해서	-4225
▁편안해	-4226
▁한마디	-4227
▁해결해	-4228
▁환멸이	-4229
▁느껴지는	-4230
해지셨군요	-4231
▁못하셨군요	-4232
▁패	-4233
▁핑	-4234
가치	-4235
▁기계	-4236
▁낳고	-4237
▁넘게	-4238
▁마치	-4239
▁만에	-4240
▁발령	-4241
▁손에	-4242
▁심부	-4243
▁황혼	-4244
봅니다	-4245
▁갈수록	-4246
▁거라는	-4247
▁게다가	-4248
▁돌보는	-4249
▁들어온	-4250
▁똑같이	-4251
▁먹어야	-4252
▁분명히	-4253
▁우연히	-4254
▁인사를	-4255
▁인생의	-4256
▁일이야	-4257
하셨다니	-4258
▁되었나요	-4259
▁만났는데	-4260
▁멀어지는	-4261
▁없으셔서	-4262
▁좌절감이	-4263
▁하셨어요	-4264
▁힘드시겠네요	-4265
▁훌	-4266
가락	-4267
동을	-4268
씨가	-4269
▁밥도	-4270
▁완벽	-4271
▁운영	-4272
▁이걸	-4273
▁이를	-4274
▁커피	-4275
거예요	-4276
상으로	-4277
▁나이는	-4278
▁면접에	-4279
▁무가치	-4280
▁신뢰가	-4281
▁않군요	-4282
▁온종일	-4283
▁있다면	-4284
▁자식을	-4285
▁줄어드	-4286
▁책임을	-4287
▁혼자인	-4288
▁가난해서	-4289
▁결혼식을	-4290
▁대처하는	-4291
▁마음으로	-4292
▁못하셔서	-4293
▁생겼는데	-4294
▁재정적으로	-4295
▁힘들었는데	-4296
▁법	-4297
▁왠	-4298
▁향	-4299
시를	-4300
이네	-4301
지면	-4302
▁개월	-4303
▁교수	-4304
▁놓고	-4305
▁데가	-4306
▁듣는	-4307
▁딸은	-4308
▁명이	-4309
▁빠듯	-4310
▁새벽	-4311
▁습관	-4312
▁신랑	-4313
▁아기	-4314
▁왠지	-4315
▁질문	-4316
▁찾는	-4317
병으로	-4318
▁공부는	-4319
▁신경쓰	-4320
▁젊어서	-4321
▁줄어서	-4322
▁취업도	-4323
▁해줘서	-4324
스럽군요	-4325
으셨겠어요	-4326
▁당황스러웠겠어요	-4327
▁겹	-4328
▁봉	-4329
드릴	-4330
심을	-4331
치를	-4332
▁간암	-4333
▁기뻤	-4334
▁대표	-4335
▁데에	-4336
▁망가	-4337
▁성실	-4338
▁소통	-4339
▁싸웠	-4340
▁아쉽	-4341
▁찾지	-4342
▁타고	-4343
▁피부	-4344
었다는	-4345
지니까	-4346
하시나	-4347
▁괴롭힌	-4348
▁떠나고	-4349
▁뜻대로	-4350
▁먹고살	-4351
▁멀어진	-4352
▁못했던	-4353
▁봅니다	-4354
▁성과가	-4355
▁손자가	-4356
▁슬퍼서	-4357
▁아빠의	-4358
▁않다고	-4359
▁이해해	-4360
▁투자를	-4361
▁돌아가신	-4362
▁않으셔서	-4363
▁원망스러워	-4364
▁쫓	-4365
▁칠	-4366
겼어	-4367
들어	-4368
률이	-4369
셔야	-4370
▁감소	-4371
▁늙고	-4372
▁달에	-4373
▁모의	-4374
▁무너	-4375
▁민망	-4376
▁의미	-4377
▁존중	-4378
인데도	-4379
▁가자고	-4380
▁갔더니	-4381
▁기다려	-4382
▁낮아서	-4383
▁해고를	-4384
▁남편과의	-4385
▁다녀왔어	-4386
▁많아져서	-4387
▁사장님이	-4388
▁아내한테	-4389
▁일자리가	-4390
▁필요한데	-4391
▁힘들었어	-4392
▁갑작스럽게	-4393
▁충격적이야	-4394
▁속상했겠어요	-4395
▁속상하시겠네요	-4396
부절	-4397
상에	-4398
▁담당	-4399
▁되서	-4400
▁백수	-4401
▁부쩍	-4402
▁분과	-4403
▁안절	-4404
▁진급	-4405
▁하셨	-4406
▁했지	-4407
▁허전	-4408
▁남들이	-4409
▁누구와	-4410
▁모임을	-4411
▁보내는	-4412
▁부탁을	-4413
▁않도록	-4414
▁알지만	-4415
▁어쩌다	-4416
▁이혼한	-4417
▁잊어버	-4418
▁재미있	-4419
▁재정이	-4420
▁지내던	-4421
▁진로가	-4422
▁처지가	-4423
스러웠어	-4424
▁기다리고	-4425
▁노력해도	-4426
▁막막하고	-4427
▁무시하고	-4428
▁생활비를	-4429
▁안절부절	-4430
▁잘해주지	-4431
▁한심하고	-4432
▁부모님과의	-4433
▁부정적으로	-4434
▁좋으셨군요	-4435
▁여자친구에게	-4436
르게	-4437
병에	-4438
차피	-4439
▁되신	-4440
▁떠올	-4441
▁부럽	-4442
▁싶다	-4443
▁양심	-4444
▁폭행	-4445
▁한편	-4446
받았어	-4447
여행을	-4448
▁가려고	-4449
▁싶다는	-4450
▁어차피	-4451
▁이해할	-4452
▁하자고	-4453
▁헤어진	-4454
▁걱정이네	-4455
▁남편한테	-4456
▁말했는데	-4457
▁못했는데	-4458
▁이혼하자고	-4459
▁좁	-4460
님을	-4461
버렸	-4462
스트	-4463
▁각자	-4464
▁거기	-4465
▁꺼려	-4466
▁날짜	-4467
▁등급	-4468
▁또래	-4469
▁말기	-4470
▁벌을	-4471
▁사무	-4472
▁지냈	-4473
▁축구	-4474
▁키운	-4475
님께서	-4476
하지도	-4477
▁긴장돼	-4478
▁더욱더	-4479
▁독립을	-4480
▁드니까	-4481
▁마누라	-4482
▁목표를	-4483
▁부분에	-4484
▁생기면	-4485
▁시키는	-4486
▁실망이	-4487
▁않지만	-4488
▁잘못이	-4489
▁저번에	-4490
▁최선의	-4491
▁취급을	-4492
▁고생하는	-4493
▁많으신가	-4494
▁미치겠어	-4495
▁속상하실	-4496
▁아니라서	-4497
▁영양제를	-4498
▁화나시겠어요	-4499
▁닮	-4500
▁밉	-4501
▁헬	-4502
동료	-4503
물을	-4504
▁난다	-4505
▁날아	-4506
▁동아	-4507
▁딸아	-4508
▁서울	-4509
▁애를	-4510
▁잃은	-4511
▁탓에	-4512
▁한결	-4513
할까요	-4514
▁기운이	-4515
▁울었어	-4516
▁유지할	-4517
▁전학을	-4518
▁좋아해	-4519
▁지인이	-4520
▁취직이	-4521
▁미안해서	-4522
▁선생님은	-4523
▁애들한테	-4524
▁우울증을	-4525
▁친구분과	-4526
직원	-4527
해보	-4528
▁것과	-4529
▁무얼	-4530
▁시골	-4531
▁시달	-4532
▁앞에	-4533
▁외면	-4534
▁조건	-4535
▁편치	-4536
▁후로	-4537
받아서	-4538
▁계획은	-4539
▁기쁘고	-4540
▁노력이	-4541
▁되시는	-4542
▁된다는	-4543
▁생일을	-4544
▁서운한	-4545
▁싫어져	-4546
▁이사를	-4547
▁이유는	-4548
▁정말로	-4549
▁직원들	-4550
▁표현할	-4551
▁해결되	-4552
▁남들보다	-4553
▁이야기가	-4554
▁행동으로	-4555
▁남자친구의	-4556
▁응원할게요	-4557
▁슬프셨겠어요	-4558
번에	-4559
사는	-4560
센터	-4561
습을	-4562
천히	-4563
했대	-4564
▁과제	-4565
▁먹지	-4566
▁잃고	-4567
▁점을	-4568
▁편히	-4569
▁훌륭	-4570
▁간다고	-4571
▁귀찮게	-4572
▁디스크	-4573
▁보험을	-4574
▁사장이	-4575
▁시간도	-4576
▁심해지	-4577
▁않았던	-4578
▁억지로	-4579
▁없군요	-4580
▁없지만	-4581
▁이전에	-4582
▁준비는	-4583
▁준비해	-4584
▁질투나	-4585
▁집으로	-4586
▁천천히	-4587
▁했는지	-4588
▁금전적인	-4589
▁들어가는	-4590
▁않는다고	-4591
▁우울증에	-4592
▁않으셨군요	-4593
▁지치셨군요	-4594
▁계획이시군요	-4595
▁부끄러우시군요	-4596
▁서운하시겠어요	-4597
▁가격	-4598
▁기업	-4599
▁나신	-4600
▁매달	-4601
▁밤에	-4602
▁분을	-4603
▁수익	-4604
▁싸워	-4605
▁예쁜	-4606
▁적게	-4607
▁정확	-4608
▁진작	-4609
▁차려	-4610
▁합병	-4611
▁화내	-4612
하라는	-4613
▁다녀서	-4614
▁다시는	-4615
▁대화도	-4616
▁무서운	-4617
▁바꾸기	-4618
▁변화가	-4619
▁싶어도	-4620
▁안좋아	-4621
▁어디로	-4622
▁이럴까	-4623
▁자세한	-4624
▁좋다는	-4625
▁같으세요	-4626
▁그렇지만	-4627
▁대기업에	-4628
▁못한다고	-4629
▁선생님과	-4630
▁싸우셔서	-4631
▁어려운데	-4632
▁자존감이	-4633
▁직장동료	-4634
▁처음에는	-4635
▁같으시군요	-4636
▁상처받으셨군요	-4637
▁꼼	-4638
▁줬	-4639
▁풍	-4640
명을	-4641
▁많지	-4642
▁반찬	-4643
▁세대	-4644
▁외톨	-4645
▁이건	-4646
▁한숨	-4647
▁혼이	-4648
▁간섭이	-4649
▁갑작스	-4650
▁마음고	-4651
▁사회적	-4652
▁성적도	-4653
▁슬펐어	-4654
▁없어져	-4655
▁연봉이	-4656
▁적금을	-4657
▁죽음을	-4658
▁챙기지	-4659
▁통보를	-4660
▁했다는	-4661
▁휴가를	-4662
▁나름대로	-4663
▁몰랐는데	-4664
▁알아주지	-4665
▁어머니와	-4666
▁일인가요	-4667
▁자식들과	-4668
▁불행하다고	-4669
▁마음이시군요	-4670
▁선택하셨군요	-4671
들께	-4672
분의	-4673
하긴	-4674
▁고객	-4675
▁구매	-4676
▁길어	-4677
▁깜빡	-4678
▁내야	-4679
▁딱히	-4680
▁때면	-4681
▁매출	-4682
▁실적	-4683
▁싸움	-4684
▁올려	-4685
▁자연	-4686
▁틀어	-4687
▁한쪽	-4688
다면서	-4689
적이고	-4690
▁가기가	-4691
▁같기도	-4692
▁문제야	-4693
▁분께서	-4694
▁사건이	-4695
▁소문을	-4696
▁소통이	-4697
▁승진이	-4698
▁시켜서	-4699
▁아기가	-4700
▁안돼서	-4701
▁영향을	-4702
▁예상치	-4703
▁우리가	-4704
▁일등을	-4705
▁준비에	-4706
▁중학교	-4707
▁하세요	-4708
▁해보고	-4709
▁동료들과	-4710
▁않는군요	-4711
▁어울리지	-4712
▁지금보다	-4713
▁질환으로	-4714
▁했는데도	-4715
▁극복하려면	-4716
▁당황스럽네	-4717
▁계획이신가요	-4718
▁받으셨겠어요	-4719
▁힘들었겠어요	-4720
▁겉	-4721
▁베	-4722
▁툴	-4723
금도	-4724
시죠	-4725
▁덜기	-4726
▁번째	-4727
▁부딪	-4728
▁시기	-4729
▁심장	-4730
▁오고	-4731
▁이어	-4732
▁종종	-4733
▁주에	-4734
▁툴툴	-4735
▁휴대	-4736
▁힘에	-4737
기까지	-4738
식으로	-4739
▁같나요	-4740
▁그만둬	-4741
▁사람인	-4742
▁생기지	-4743
▁싶기도	-4744
▁일이라	-4745
▁좋아진	-4746
▁준비할	-4747
▁하기로	-4748
하시다니	-4749
▁가족들도	-4750
▁신체장애	-4751
▁아빠한테	-4752
▁이력서를	-4753
▁잘못이야	-4754
▁편안하게	-4755
▁계시는가요	-4756
▁놀라셨군요	-4757
관이	-4758
래요	-4759
음이	-4760
자로	-4761
저것	-4762
▁남을	-4763
▁높아	-4764
▁때리	-4765
▁상상	-4766
▁알면	-4767
▁잘난	-4768
▁참을	-4769
▁하여	-4770
라는데	-4771
뿐이야	-4772
스럽지	-4773
▁기회가	-4774
▁받으면	-4775
▁없거든	-4776
▁열등감	-4777
▁은근히	-4778
▁이제야	-4779
▁일들을	-4780
▁출산을	-4781
▁키우고	-4782
▁해주는	-4783
▁담임선생	-4784
▁벗어나고	-4785
▁아내와의	-4786
▁아들한테	-4787
▁없어져서	-4788
▁이것저것	-4789
▁책임져야	-4790
▁행동하는	-4791
▁걱정이군요	-4792
▁남자친구를	-4793
▁부끄러웠어	-4794
▁푼	-4795
▁흔	-4796
드시	-4797
버린	-4798
병을	-4799
▁눈에	-4800
▁드려	-4801
▁만든	-4802
▁멀쩡	-4803
▁살다	-4804
▁술만	-4805
▁어지	-4806
▁이래	-4807
▁헬스	-4808
시면서	-4809
주셔서	-4810
하더라	-4811
▁당신의	-4812
▁말했어	-4813
▁밖에서	-4814
▁비밀을	-4815
▁상의할	-4816
▁아프면	-4817
▁안심이	-4818
▁언니는	-4819
▁여전히	-4820
▁장애로	-4821
▁저렇게	-4822
▁지치고	-4823
▁가족끼리	-4824
▁계실까요	-4825
▁관계에서	-4826
▁들어주지	-4827
▁받았군요	-4828
▁알아보고	-4829
▁헤어졌어	-4830
▁가족들한테	-4831
▁여자친구랑	-4832
▁지금부터라도	-4833
▁닫	-4834
▁쉴	-4835
▁씁	-4836
봤어	-4837
위를	-4838
지어	-4839
하길	-4840
▁씁쓸	-4841
▁어깨	-4842
▁자살	-4843
▁제안	-4844
▁제한	-4845
▁죽은	-4846
▁풀기	-4847
던가요	-4848
이었어	-4849
하려니	-4850
했나요	-4851
▁명절에	-4852
▁성가신	-4853
▁손해를	-4854
▁안하고	-4855
▁않는데	-4856
▁잘하지	-4857
▁저축을	-4858
▁좋으신	-4859
▁죽음이	-4860
▁책임감	-4861
하시는데	-4862
▁그랬군요	-4863
▁무엇인지	-4864
▁미안하네	-4865
▁미안함을	-4866
▁않으려고	-4867
▁있겠네요	-4868
▁털어놓을	-4869
▁학대받는	-4870
▁노인정에서	-4871
▁들으셨군요	-4872
▁택	-4873
▁흡	-4874
커녕	-4875
▁귀가	-4876
▁길이	-4877
▁내년	-4878
▁맡은	-4879
▁무사	-4880
▁문을	-4881
▁뭔지	-4882
▁시원	-4883
▁올랐	-4884
▁잘한	-4885
▁저러	-4886
▁존경	-4887
▁즐기	-4888
▁험담	-4889
▁흥미	-4890
었는지	-4891
하셨어	-4892
▁돌보지	-4893
▁마스크	-4894
▁만나게	-4895
▁말씀이	-4896
▁말하기	-4897
▁반드시	-4898
▁보기가	-4899
▁비결이	-4900
▁속에서	-4901
▁심지어	-4902
▁싶군요	-4903
▁싶어요	-4904
▁쓸쓸해	-4905
▁안되는	-4906
▁입사한	-4907
▁정하지	-4908
▁피곤해	-4909
▁혈압이	-4910
▁확신이	-4911
▁마음이야	-4912
▁만나기가	-4913
▁많았는데	-4914
▁했었는데	-4915
▁부담스러워	-4916
▁안절부절못	-4917
▁여자친구를	-4918
▁좋아질까요	-4919
▁징	-4920
▁짧	-4921
▁혈	-4922
비로	-4923
왔던	-4924
으론	-4925
▁다퉈	-4926
▁동성	-4927
▁되찾	-4928
▁듣기	-4929
▁마땅	-4930
▁먹여	-4931
▁미뤄	-4932
▁밀려	-4933
▁복지	-4934
▁사귄	-4935
▁쉬운	-4936
▁시끄	-4937
▁자제	-4938
▁체력	-4939
▁피로	-4940
리려고	-4941
▁가족의	-4942
▁것들을	-4943
▁괴롭고	-4944
▁배우고	-4945
▁빠져서	-4946
▁심정이	-4947
▁언젠가	-4948
▁지나친	-4949
▁취업할	-4950
▁팀장이	-4951
▁사회에서	-4952
▁속상하신	-4953
▁이야기할	-4954
▁자신감을	-4955
▁좋아지고	-4956
▁어려워져서	-4957
▁좋으신가요	-4958
▁후회스러워	-4959
▁돕	-4960
▁찢	-4961
▁클	-4962
▁핀	-4963
버리	-4964
펀드	-4965
해줄	-4966
혼을	-4967
휠체	-4968
▁걸로	-4969
▁관한	-4970
▁그저	-4971
▁기말	-4972
▁뉴스	-4973
▁되게	-4974
▁떠날	-4975
▁먹으	-4976
▁버티	-4977
▁사십	-4978
▁소원	-4979
▁압박	-4980
▁양보	-4981
▁우유	-4982
▁이거	-4983
▁판단	-4984
드리고	-4985
하시길	-4986
▁관계로	-4987
▁무능력	-4988
▁상사와	-4989
▁생기고	-4990
▁시부모	-4991
▁의심이	-4992
▁의지할	-4993
▁태어난	-4994
▁혼났어	-4995
▁결혼하는	-4996
▁공부하고	-4997
▁때문이야	-4998
▁때문인지	-4999
▁먹었는데	-5000
▁친구분의	-5001
▁당혹스러우	-5002
▁생각하는데	-5003
▁범	-5004
나마	-5005
님과	-5006
된다	-5007
쇼핑	-5008
▁구박	-5009
▁급한	-5010
▁기념	-5011
▁낮게	-5012
▁대응	-5013
▁맞고	-5014
▁방문	-5015
▁심심	-5016
▁유대	-5017
▁재취	-5018
▁통화	-5019
▁한참	-5020
▁확신	-5021
시키는	-5022
합니다	-5023
▁갔다가	-5024
▁고생만	-5025
▁고생을	-5026
▁고생이	-5027
▁급하게	-5028
▁기대가	-5029
▁끝나고	-5030
▁노후가	-5031
▁부부가	-5032
▁부분을	-5033
▁뿐이야	-5034
▁움직이	-5035
▁자녀를	-5036
▁작년에	-5037
▁장례식	-5038
▁직장도	-5039
▁하잖아	-5040
셨을까요	-5041
▁계속해서	-5042
▁긍정적으로	-5043
▁시작했는데	-5044
▁힘들어하고	-5045
▁답답하시군요	-5046
▁논	-5047
▁흉	-5048
대한	-5049
들에	-5050
러서	-5051
법이	-5052
소리	-5053
터디	-5054
회에	-5055
▁경로	-5056
▁고쳐	-5057
▁만만	-5058
▁말실	-5059
▁반성	-5060
▁불가	-5061
▁성과	-5062
▁잡히	-5063
▁장래	-5064
▁적극	-5065
▁카드	-5066
▁큰아	-5067
▁하러	-5068
▁그러네	-5069
▁기쁨을	-5070
▁노인네	-5071
▁들려요	-5072
▁막막한	-5073
▁상당히	-5074
▁서럽고	-5075
▁슬프실	-5076
▁암으로	-5077
▁여자가	-5078
▁주식이	-5079
▁치료가	-5080
▁하거든	-5081
▁했으면	-5082
▁것이라고	-5083
▁동생에게	-5084
▁보이세요	-5085
▁심적으로	-5086
▁알려주실	-5087
▁어떡하면	-5088
▁어머님이	-5089
▁일이라도	-5090
▁잔소리가	-5091
▁후회되고	-5092
▁친구였는데	-5093
▁기분이시군요	-5094
▁속상하시겠군요	-5095
▁우울하시겠어요	-5096
단한	-5097
위가	-5098
▁기술	-5099
▁끝내	-5100
▁높게	-5101
▁못했	-5102
▁방에	-5103
▁스펙	-5104
▁암이	-5105
▁없대	-5106
▁연예	-5107
▁온몸	-5108
▁좋네	-5109
▁펀드	-5110
입니다	-5111
장으로	-5112
▁결과에	-5113
▁고백을	-5114
▁그만큼	-5115
▁나까지	-5116
▁나오고	-5117
▁느끼지	-5118
▁보고서	-5119
▁불안을	-5120
▁살면서	-5121
▁서글퍼	-5122
▁심각한	-5123
▁애들을	-5124
▁얼굴이	-5125
▁해고당	-5126
▁느긋하게	-5127
▁다니면서	-5128
▁대화하는	-5129
▁사람으로	-5130
▁사람한테	-5131
▁슬프군요	-5132
▁있더라고	-5133
▁자녀분이	-5134
▁좋아해서	-5135
▁증오스러워	-5136
▁아르바이트를	-5137
▁컨	-5138
르는	-5139
았던	-5140
▁금연	-5141
▁금일	-5142
▁깜짝	-5143
▁당할	-5144
▁도박	-5145
▁버거	-5146
▁보호	-5147
▁원만	-5148
▁이만	-5149
▁자괴	-5150
▁카페	-5151
▁휴가	-5152
해줘서	-5153
▁갈등을	-5154
▁경우가	-5155
▁노년이	-5156
▁놀라고	-5157
▁돌아오	-5158
▁동생과	-5159
▁떨어졌	-5160
▁무사히	-5161
▁받을까	-5162
▁배신감	-5163
▁병으로	-5164
▁상태를	-5165
▁새아빠	-5166
▁선물로	-5167
▁소용이	-5168
▁실적이	-5169
▁요청할	-5170
▁용기가	-5171
▁이직을	-5172
▁주셨어	-5173
▁통해서	-5174
하시네요	-5175
▁공황장애	-5176
▁남편분의	-5177
▁말다툼을	-5178
▁아드님의	-5179
▁좋으신가	-5180
▁친구보다	-5181
▁느끼셨나요	-5182
▁막막하시군요	-5183
▁상하셨겠어요	-5184
일에	-5185
▁갚지	-5186
▁경력	-5187
▁기획	-5188
▁나갔	-5189
▁등을	-5190
▁멈추	-5191
▁몸과	-5192
▁배워	-5193
▁보통	-5194
▁앉아	-5195
▁않나	-5196
▁일방	-5197
▁작년	-5198
▁잡아	-5199
▁투병	-5200
구하고	-5201
된다고	-5202
였군요	-5203
하겠어	-5204
하네요	-5205
▁가정에	-5206
▁계기로	-5207
▁공부만	-5208
▁기분도	-5209
▁벌어서	-5210
▁부당한	-5211
▁분위기	-5212
▁아빠를	-5213
▁자랑을	-5214
▁좋아요	-5215
▁주식을	-5216
▁퇴사를	-5217
▁나한테는	-5218
▁도와주는	-5219
▁따돌려서	-5220
▁모양이야	-5221
▁받아들이	-5222
▁않았군요	-5223
▁알면서도	-5224
▁예전처럼	-5225
▁이혼하게	-5226
▁보이시네요	-5227
▁친구들보다	-5228
▁초조하시겠어요	-5229
늦게	-5230
야지	-5231
차를	-5232
▁과도	-5233
▁노는	-5234
▁떨리	-5235
▁반에	-5236
▁받기	-5237
▁수치	-5238
▁유방	-5239
▁장기	-5240
▁장소	-5241
▁재발	-5242
▁집도	-5243
▁책을	-5244
▁핑계	-5245
▁한대	-5246
▁해낼	-5247
▁휠체	-5248
생활도	-5249
▁게임에	-5250
▁궁금해	-5251
▁권고사	-5252
▁귀찮고	-5253
▁그러다	-5254
▁나니까	-5255
▁남아서	-5256
▁높아서	-5257
▁말아야	-5258
▁방에서	-5259
▁배신을	-5260
▁비참해	-5261
▁스터디	-5262
▁아이의	-5263
▁어디에	-5264
▁없어진	-5265
▁역할을	-5266
▁전환할	-5267
▁좋았을	-5268
▁확실히	-5269
▁고독하고	-5270
▁들어와서	-5271
▁무척이나	-5272
▁물어봐도	-5273
▁신입사원	-5274
▁언제부터	-5275
▁일들에는	-5276
▁지경이야	-5277
▁치료비가	-5278
▁해결하실	-5279
▁느끼는군요	-5280
▁벅	-5281
분간	-5282
조절	-5283
▁가도	-5284
▁겪으	-5285
▁그거	-5286
▁내내	-5287
▁불공	-5288
▁서럽	-5289
▁아우	-5290
▁언짢	-5291
▁유명	-5292
▁자료	-5293
▁주면	-5294
▁타인	-5295
▁했을	-5296
▁후의	-5297
해야지	-5298
▁경로당	-5299
▁당분간	-5300
▁되시나	-5301
▁들으면	-5302
▁세월이	-5303
▁식사를	-5304
▁요즘에	-5305
▁원인이	-5306
▁장사가	-5307
▁찾아서	-5308
▁하나둘	-5309
▁화나고	-5310
▁회복할	-5311
되셨군요	-5312
▁건강하지	-5313
▁걸렸는데	-5314
▁그랬는데	-5315
▁긍정적인	-5316
▁느끼도록	-5317
▁두려움이	-5318
▁손주들이	-5319
▁아이들과	-5320
▁유지하기	-5321
▁좋겠다고	-5322
▁좋았는데	-5323
▁찾아오는	-5324
▁팀원들이	-5325
▁합격했어	-5326
▁해보려고	-5327
▁해야할지	-5328
적이시군요	-5329
▁만족스러운	-5330
▁부족하다고	-5331
▁사람들한테	-5332
▁생각이에요	-5333
▁힘들어하시는군요	-5334
▁뜨	-5335
그러	-5336
나라	-5337
냐는	-5338
받아	-5339
어진	-5340
장은	-5341
질을	-5342
치지	-5343
▁가벼	-5344
▁국민	-5345
▁까먹	-5346
▁되기	-5347
▁드신	-5348
▁맞추	-5349
▁살림	-5350
▁속마	-5351
▁없앨	-5352
▁유일	-5353
▁음주	-5354
▁정상	-5355
하실까	-5356
했다가	-5357
▁고민돼	-5358
▁그러한	-5359
▁다니기	-5360
▁드셔서	-5361
▁만나기	-5362
▁바람피	-5363
▁실수한	-5364
▁얘기만	-5365
▁어려서	-5366
▁운동이	-5367
▁의사소	-5368
▁있겠어	-5369
▁죽으면	-5370
했는데도	-5371
▁그러시는	-5372
▁대처해야	-5373
▁모의고사	-5374
▁무기력해	-5375
▁무엇보다	-5376
▁봐야겠어	-5377
▁와이프가	-5378
▁가해자들이	-5379
▁남자친구는	-5380
▁모르겠어서	-5381
▁무시당하는	-5382
▁괜찮으신가요	-5383
▁행복하시군요	-5384
였던	-5385
▁가득	-5386
▁고려	-5387
▁뛰어	-5388
▁말한	-5389
▁먹은	-5390
▁분께	-5391
▁시켰	-5392
▁전할	-5393
▁주신	-5394
▁집착	-5395
▁키울	-5396
원으로	-5397
▁걱정은	-5398
▁무시당	-5399
▁무시를	-5400
▁실수가	-5401
▁얘기할	-5402
▁큰일이	-5403
▁기다리는	-5404
▁나에게만	-5405
▁느끼시나	-5406
▁동료에게	-5407
▁뒤처지는	-5408
▁아프니까	-5409
▁어떤가요	-5410
▁자리에서	-5411
▁하시는데	-5412
▁힘내세요	-5413
▁살아왔는데	-5414
▁아니었는데	-5415
▁인간관계에	-5416
▁고민하시는군요	-5417
▁꽃	-5418
▁옳	-5419
경이	-5420
규직	-5421
나갈	-5422
이니	-5423
주신	-5424
▁간의	-5425
▁곳을	-5426
▁구조	-5427
▁기침	-5428
▁눈을	-5429
▁보너	-5430
▁비용	-5431
▁슬플	-5432
▁약이	-5433
▁없었	-5434
▁유학	-5435
▁있네	-5436
▁중이	-5437
▁지낸	-5438
▁초등	-5439
▁푸는	-5440
▁핀잔	-5441
▁호전	-5442
▁가르쳐	-5443
▁관계도	-5444
▁그나마	-5445
▁기쁘실	-5446
▁남자를	-5447
▁넘어가	-5448
▁누구도	-5449
▁먹는데	-5450
▁받아들	-5451
▁비용이	-5452
▁사진을	-5453
▁상처야	-5454
▁수업을	-5455
▁얼굴도	-5456
▁유방암	-5457
▁이해를	-5458
▁지원한	-5459
▁하려니	-5460
▁하지도	-5461
였겠어요	-5462
하는데도	-5463
▁감사함을	-5464
▁건강해서	-5465
▁못하니까	-5466
▁불안하네	-5467
▁살아가는	-5468
▁소외감을	-5469
▁알았으면	-5470
▁있으셨나	-5471
▁지나치게	-5472
▁반대하셔서	-5473
▁빌려달라고	-5474
▁이해해주지	-5475
▁말해주시겠어요	-5476
▁규	-5477
▁워	-5478
들만	-5479
복을	-5480
상태	-5481
을지	-5482
주의	-5483
칠까	-5484
▁같네	-5485
▁구직	-5486
▁놀림	-5487
▁단체	-5488
▁따뜻	-5489
▁마감	-5490
▁맡게	-5491
▁바닥	-5492
▁버스	-5493
▁살면	-5494
▁쇼핑	-5495
▁쓰게	-5496
▁없던	-5497
▁용서	-5498
▁제가	-5499
▁찾기	-5500
▁척을	-5501
까지는	-5502
스러울	-5503
지셔서	-5504
하는지	-5505
▁가끔은	-5506
▁건강은	-5507
▁곤란한	-5508
▁공부한	-5509
▁과거에	-5510
▁과장님	-5511
▁긴장을	-5512
▁내용을	-5513
▁놀려서	-5514
▁달래기	-5515
▁되는지	-5516
▁들어간	-5517
▁성과를	-5518
▁심장이	-5519
▁어렵네	-5520
▁연애가	-5521
▁예정이	-5522
▁우리는	-5523
▁잃어서	-5524
▁자체가	-5525
▁친해질	-5526
▁하더니	-5527
▁휴대폰	-5528
▁괴롭혔던	-5529
▁그랬을까	-5530
▁누구에게	-5531
▁다이어트	-5532
▁독립하고	-5533
▁말씀드려	-5534
▁말하기가	-5535
▁병원비로	-5536
▁상실감이	-5537
▁있었으면	-5538
▁후회되네	-5539
▁교통사고를	-5540
▁다녀왔는데	-5541
▁생각하니까	-5542
▁있으셨는지	-5543
▁남자친구한테	-5544
▁당황스럽겠어요	-5545
▁얄	-5546
▁헌	-5547
각이	-5548
능이	-5549
대는	-5550
사랑	-5551
없고	-5552
지기	-5553
▁대부	-5554
▁목격	-5555
▁미술	-5556
▁사귈	-5557
▁일인	-5558
▁있죠	-5559
▁짓을	-5560
▁환자	-5561
없다고	-5562
원에서	-5563
했어야	-5564
▁대답을	-5565
▁못하면	-5566
▁비통한	-5567
▁살아왔	-5568
▁이번엔	-5569
▁제약이	-5570
▁지병이	-5571
▁처음엔	-5572
▁하라는	-5573
▁걱정되네	-5574
▁괜찮다고	-5575
▁마음처럼	-5576
▁불구하고	-5577
▁불안하신	-5578
▁사과하고	-5579
▁수술비를	-5580
▁실망이야	-5581
▁아이들도	-5582
▁잘못해서	-5583
▁치료비를	-5584
▁항암치료	-5585
▁핸드폰을	-5586
▁준비했는데	-5587
▁낙담하셨군요	-5588
▁사용자님에게	-5589
▁빵	-5590
▁쏟	-5591
▁찌	-5592
고가	-5593
디션	-5594
렸던	-5595
름이	-5596
염이	-5597
즈음	-5598
지에	-5599
테크	-5600
한지	-5601
▁고지	-5602
▁고향	-5603
▁군데	-5604
▁내용	-5605
▁노동	-5606
▁들게	-5607
▁땅을	-5608
▁무심	-5609
▁밤새	-5610
▁불우	-5611
▁사촌	-5612
▁여성	-5613
▁입시	-5614
▁지시	-5615
▁차가	-5616
▁착잡	-5617
▁치고	-5618
▁헤쳐	-5619
▁화난	-5620
▁힘을	-5621
하려는	-5622
하시면	-5623
▁그만뒀	-5624
▁기회를	-5625
▁느껴서	-5626
▁도와준	-5627
▁문제는	-5628
▁보는데	-5629
▁불가능	-5630
▁불공평	-5631
▁비교가	-5632
▁샀는데	-5633
▁섭섭해	-5634
▁신뢰를	-5635
▁아이와	-5636
▁은퇴가	-5637
▁일해서	-5638
▁재테크	-5639
▁주식에	-5640
▁지겨워	-5641
▁지출이	-5642
▁질문을	-5643
▁큰돈을	-5644
해주셔서	-5645
▁세상에서	-5646
▁자격증을	-5647
▁합격해서	-5648
▁해결책이	-5649
▁혹시라도	-5650
▁힘들군요	-5651
▁텔	-5652
냈어	-5653
대가	-5654
레비	-5655
만의	-5656
언을	-5657
▁남았	-5658
▁맞은	-5659
▁슬슬	-5660
▁안나	-5661
▁예의	-5662
▁울적	-5663
▁잃게	-5664
▁있대	-5665
▁줄여	-5666
거리가	-5667
▁건강해	-5668
▁괴롭혀	-5669
▁대놓고	-5670
▁말이지	-5671
▁망쳐서	-5672
▁부모가	-5673
▁빌려준	-5674
▁사업에	-5675
▁아끼는	-5676
▁안쓰러	-5677
▁은퇴할	-5678
▁의지가	-5679
▁이후에	-5680
▁자금이	-5681
▁지장이	-5682
▁텔레비	-5683
▁할지도	-5684
▁합격할	-5685
▁화해를	-5686
▁당당하게	-5687
▁당하셔서	-5688
▁사랑하지	-5689
▁이야기만	-5690
▁이혼으로	-5691
▁축하해요	-5692
▁헤어져서	-5693
▁가장으로서	-5694
▁걱정되시나	-5695
▁공부했는데	-5696
▁자녀분들에게	-5697
▁납	-5698
구먼	-5699
▁갈까	-5700
▁거면	-5701
▁그건	-5702
▁느낀	-5703
▁드라	-5704
▁맘에	-5705
▁방향	-5706
▁번씩	-5707
▁빈곤	-5708
▁사망	-5709
▁시집	-5710
▁어때	-5711
▁전염	-5712
겠는데	-5713
었더니	-5714
하잖아	-5715
▁가정이	-5716
▁과제를	-5717
▁노래를	-5718
▁대화로	-5719
▁들어도	-5720
▁만났어	-5721
▁망했어	-5722
▁먹으니	-5723
▁바쁘게	-5724
▁번이나	-5725
▁비교를	-5726
▁뿌듯해	-5727
▁서글프	-5728
▁소홀히	-5729
▁어제도	-5730
▁언제쯤	-5731
▁용돈도	-5732
▁우유부	-5733
▁임신을	-5734
▁잘못인	-5735
리셨군요	-5736
▁믿어주지	-5737
▁속상하네	-5738
▁심정이야	-5739
▁아니어서	-5740
▁예전부터	-5741
▁외로워서	-5742
▁우울함을	-5743
▁취업하기	-5744
▁친해지고	-5745
▁퇴직금을	-5746
▁해버렸어	-5747
▁계획이세요	-5748
▁노후자금을	-5749
▁불만스러워	-5750
▁사람들이랑	-5751
▁사용자님은	-5752
▁필요할까요	-5753
▁한편으로는	-5754
▁생각하는군요	-5755
▁생각하셨군요	-5756
▁서운하시군요	-5757
▁걱정이시겠어요	-5758
▁실망하셨겠어요	-5759
▁알려주시겠어요	-5760
▁뚱	-5761
▁맺	-5762
단을	-5763
던지	-5764
되게	-5765
싶은	-5766
우는	-5767
전을	-5768
전이	-5769
▁감동	-5770
▁과목	-5771
▁나빴	-5772
▁뚱뚱	-5773
▁미칠	-5774
▁버린	-5775
▁보인	-5776
▁빚이	-5777
▁사내	-5778
▁살게	-5779
▁상심	-5780
▁술에	-5781
▁싸울	-5782
▁어땠	-5783
▁얻어	-5784
▁원을	-5785
▁적금	-5786
▁짐을	-5787
겼는데	-5788
▁같았어	-5789
▁걱정에	-5790
▁구해야	-5791
▁그만둘	-5792
▁달라진	-5793
▁대화는	-5794
▁되다니	-5795
▁망설여	-5796
▁맞았어	-5797
▁매출이	-5798
▁받으니	-5799
▁보람이	-5800
▁분들과	-5801
▁손자를	-5802
▁시험공	-5803
▁싸움이	-5804
▁아프지	-5805
▁않으신	-5806
▁알아주	-5807
▁약속이	-5808
▁주변의	-5809
▁즐거워	-5810
▁지난주	-5811
▁필요해	-5812
▁해결방	-5813
▁갱년기로	-5814
▁결혼하면	-5815
▁들었나요	-5816
▁부끄럽고	-5817
▁불편한데	-5818
▁여유롭게	-5819
▁이겨내기	-5820
▁좋아지는	-5821
▁집중하기	-5822
▁찾아오지	-5823
▁쳐다보는	-5824
▁하는데도	-5825
▁건강하다고	-5826
▁아프셨군요	-5827
▁어려우시겠어요	-5828
▁설명해주시겠어요	-5829
▁씻	-5830
▁휘	-5831
거를	-5832
생을	-5833
신을	-5834
실이	-5835
품이	-5836
▁간병	-5837
▁건망	-5838
▁년간	-5839
▁때려	-5840
▁맛있	-5841
▁손이	-5842
▁실직	-5843
▁약한	-5844
▁우는	-5845
▁자전	-5846
▁편을	-5847
지면서	-5848
▁가까이	-5849
▁거동이	-5850
▁경기가	-5851
▁관련된	-5852
▁기대를	-5853
▁기뻤어	-5854
▁냄새가	-5855
▁다퉜어	-5856
▁당신을	-5857
▁당하게	-5858
▁동생의	-5859
▁망쳤어	-5860
▁맞아요	-5861
▁믿음직	-5862
▁본인을	-5863
▁성인이	-5864
▁아파도	-5865
▁얘기가	-5866
▁요즈음	-5867
▁용기를	-5868
▁의사의	-5869
▁자신도	-5870
▁정보를	-5871
▁챙겨야	-5872
▁투자한	-5873
▁훌륭한	-5874
▁걱정하는	-5875
▁그러세요	-5876
▁기억력이	-5877
▁부끄러우	-5878
▁선생님의	-5879
▁성적표를	-5880
▁아빠에게	-5881
▁앞으로가	-5882
▁없어졌어	-5883
▁죽음으로	-5884
▁중간고사	-5885
▁사람이라고	-5886
▁속상하신가	-5887
▁인간관계가	-5888
겠대	-5889
내기	-5890
받으	-5891
봤자	-5892
▁가로	-5893
▁계산	-5894
▁골프	-5895
▁기본	-5896
▁깨달	-5897
▁꿈도	-5898
▁다스	-5899
▁다정	-5900
▁데도	-5901
▁도둑	-5902
▁떠오	-5903
▁마시	-5904
▁말까	-5905
▁변한	-5906
▁안돼	-5907
▁어서	-5908
▁얻을	-5909
▁영감	-5910
▁일구	-5911
▁장학	-5912
▁정이	-5913
▁좋다	-5914
▁증상	-5915
▁지친	-5916
▁착한	-5917
▁청할	-5918
▁치밀	-5919
▁티브	-5920
동생이	-5921
보네요	-5922
하시니	-5923
▁그래요	-5924
▁긴장이	-5925
▁놀기만	-5926
▁동아리	-5927
▁면에서	-5928
▁분노를	-5929
▁사귀고	-5930
▁사랑을	-5931
▁소리가	-5932
▁아빠와	-5933
▁앞날이	-5934
▁온몸이	-5935
▁올해는	-5936
▁위로를	-5937
▁있었나	-5938
▁자리가	-5939
▁자식도	-5940
▁주려고	-5941
▁천식이	-5942
▁풀리지	-5943
▁혹시나	-5944
▁걱정돼서	-5945
▁나겠어요	-5946
▁대학교를	-5947
▁보셨군요	-5948
▁보셨어요	-5949
▁생각지도	-5950
▁악의적인	-5951
▁않으니까	-5952
▁연락하는	-5953
▁취업해서	-5954
▁프로그램	-5955
▁노후준비도	-5956
▁당하셨군요	-5957
▁동료들에게	-5958
▁만족스럽지	-5959
▁선생님에게	-5960
▁친구들하고	-5961
▁친구분들이	-5962
▁프러포즈를	-5963
갑게	-5964
도로	-5965
웠던	-5966
▁끝에	-5967
▁난리	-5968
▁단순	-5969
▁드실	-5970
▁듣게	-5971
▁맞나	-5972
▁무료	-5973
▁분은	-5974
▁빼앗	-5975
▁소식	-5976
▁숨겨	-5977
▁영화	-5978
▁오를	-5979
▁재수	-5980
▁정기	-5981
▁중년	-5982
▁하필	-5983
▁훔쳐	-5984
거리는	-5985
▁가방을	-5986
▁나처럼	-5987
▁남자와	-5988
▁능력을	-5989
▁동성애	-5990
▁되나요	-5991
▁되도록	-5992
▁때려서	-5993
▁마세요	-5994
▁마음먹	-5995
▁병문안	-5996
▁부서로	-5997
▁분에게	-5998
▁비통해	-5999
▁살아오	-6000
▁슬픔이	-6001
▁영양제	-6002
▁예전엔	-6003
▁오래된	-6004
▁이름을	-6005
▁임신이	-6006
▁자리에	-6007
▁조금은	-6008
▁준다고	-6009
▁집안이	-6010
▁집중을	-6011
▁집중할	-6012
▁처리가	-6013
▁태도를	-6014
▁통증이	-6015
▁표현을	-6016
▁후회를	-6017
▁나갔는데	-6018
▁나아지지	-6019
▁넉넉하지	-6020
▁노인정에	-6021
▁느끼는데	-6022
▁도와주고	-6023
▁못하는데	-6024
▁무기력한	-6025
▁무언가를	-6026
▁보험금을	-6027
▁사람인데	-6028
▁사실대로	-6029
▁어렵다고	-6030
▁있는데도	-6031
▁자신감도	-6032
▁집에서도	-6033
▁퇴근하고	-6034
▁허탈하고	-6035
▁좋아한다고	-6036
▁집중하기가	-6037
▁뿌듯하시겠어요	-6038
▁상처받으셨겠어요	-6039
▁녹	-6040
▁틈	-6041
건지	-6042
경을	-6043
길이	-6044
임이	-6045
자금	-6046
▁거리	-6047
▁걸릴	-6048
▁교류	-6049
▁깊은	-6050
▁다양	-6051
▁둘째	-6052
▁만약	-6053
▁반가	-6054
▁버릇	-6055
▁사서	-6056
▁사원	-6057
▁숙제	-6058
▁인스	-6059
▁했고	-6060
만으로	-6061
분들이	-6062
▁가라고	-6063
▁고지혈	-6064
▁그럴까	-6065
▁나가지	-6066
▁남들과	-6067
▁느끼신	-6068
▁다퉈서	-6069
▁데리고	-6070
▁많으신	-6071
▁모임이	-6072
▁부장이	-6073
▁비교해	-6074
▁생길까	-6075
▁서로를	-6076
▁실패로	-6077
▁싫어해	-6078
▁오셔서	-6079
▁월세를	-6080
▁음식이	-6081
▁이만저	-6082
▁있냐고	-6083
▁잘해주	-6084
하겠다고	-6085
▁결혼하게	-6086
▁공부해야	-6087
▁과장님이	-6088
▁관절염이	-6089
▁본인에게	-6090
▁불편하신	-6091
▁생각나서	-6092
▁생각해요	-6093
▁아내분의	-6094
▁좋아하지	-6095
▁친구분께	-6096
▁고등학교에	-6097
▁마음고생이	-6098
▁부모님한테	-6099
▁선생님한테	-6100
▁여자친구의	-6101
▁조심스럽게	-6102
▁필요하다고	-6103
▁나아지실까요	-6104
▁고민되시겠어요	-6105
▁두려우시겠어요	-6106
▁냉	-6107
▁떼	-6108
▁캄	-6109
내서	-6110
복이	-6111
전환	-6112
▁가깝	-6113
▁갈지	-6114
▁갖게	-6115
▁걔가	-6116
▁군대	-6117
▁꼼꼼	-6118
▁대접	-6119
▁덕에	-6120
▁떨려	-6121
▁맡기	-6122
▁멍청	-6123
▁명도	-6124
▁모를	-6125
▁못생	-6126
▁번에	-6127
▁부질	-6128
▁빌린	-6129
▁사건	-6130
▁숨이	-6131
▁안에	-6132
▁엉망	-6133
▁예방	-6134
▁옮기	-6135
▁의논	-6136
▁작업	-6137
▁주눅	-6138
▁캄캄	-6139
▁크실	-6140
▁편한	-6141
▁형은	-6142
는다고	-6143
▁경찰에	-6144
▁계세요	-6145
▁과도한	-6146
▁과외를	-6147
▁그리워	-6148
▁끝까지	-6149
▁나쁘게	-6150
▁나타나	-6151
▁대처할	-6152
▁대화에	-6153
▁떨어질	-6154
▁만드는	-6155
▁맘대로	-6156
▁면목이	-6157
▁버려서	-6158
▁아쉬워	-6159
▁이유도	-6160
▁줬는데	-6161
▁테스트	-6162
▁하시게	-6163
▁혼나서	-6164
▁가족관계	-6165
▁기말고사	-6166
▁서러운데	-6167
▁취업하고	-6168
▁친하다고	-6169
하셨겠군요	-6170
▁기쁘셨군요	-6171
▁때문이라고	-6172
▁비관적으로	-6173
▁이만저만이	-6174
▁이야기하고	-6175
▁일이신가요	-6176
▁허리디스크	-6177
▁느껴지셨군요	-6178
▁바라시는군요	-6179
▁않으시는군요	-6180
▁만족스러우시군요	-6181
▁괘	-6182
▁끔	-6183
따라	-6184
렀어	-6185
법을	-6186
살이	-6187
으실	-6188
자인	-6189
킬까	-6190
▁끔찍	-6191
▁난처	-6192
▁놀이	-6193
▁도울	-6194
▁뒤에	-6195
▁들켜	-6196
▁방안	-6197
▁보낸	-6198
▁복수	-6199
▁사준	-6200
▁수영	-6201
▁연습	-6202
▁있긴	-6203
▁잠시	-6204
▁잦아	-6205
▁적도	-6206
▁전교	-6207
▁전세	-6208
▁줘야	-6209
▁청년	-6210
▁파티	-6211
문제로	-6212
시키기	-6213
웠군요	-6214
하거나	-6215
▁그러고	-6216
▁나오면	-6217
▁남았어	-6218
▁동료의	-6219
▁동생은	-6220
▁들었을	-6221
▁따돌리	-6222
▁보살펴	-6223
▁불만족	-6224
▁사실은	-6225
▁상태야	-6226
▁싸움을	-6227
▁아프네	-6228
▁어때요	-6229
▁여행도	-6230
▁원하지	-6231
▁월급도	-6232
▁유학을	-6233
▁있겠지	-6234
▁자료를	-6235
▁재산이	-6236
▁지갑을	-6237
▁직업에	-6238
▁짝사랑	-6239
▁친구에	-6240
▁하셨나	-6241
▁걱정으로	-6242
▁계속되는	-6243
▁고등학생	-6244
▁관련해서	-6245
▁들으셔서	-6246
▁사람이라	-6247
▁상사한테	-6248
▁생각해도	-6249
▁업무량이	-6250
▁외톨이가	-6251
▁자책하고	-6252
▁주위에서	-6253
▁코로나가	-6254
▁할아버지	-6255
▁기쁘겠어요	-6256
▁미안하다고	-6257
▁빌려줬는데	-6258
▁절망스러워	-6259
▁경제적으로도	-6260
▁썩	-6261
▁탐	-6262
돌이	-6263
든지	-6264
사건	-6265
▁괘씸	-6266
▁끊어	-6267
▁내신	-6268
▁노트	-6269
▁도착	-6270
▁따르	-6271
▁멋지	-6272
▁방학	-6273
▁버렸	-6274
▁복용	-6275
▁소심	-6276
▁싶네	-6277
▁앞서	-6278
▁이끌	-6279
▁자부	-6280
▁죽어	-6281
▁지루	-6282
▁지역	-6283
▁찢어	-6284
▁처벌	-6285
▁통과	-6286
▁풀고	-6287
▁학벌	-6288
▁헌신	-6289
▁현명	-6290
▁화풀	-6291
될까요	-6292
립니다	-6293
시느라	-6294
였나요	-6295
할까봐	-6296
▁간호사	-6297
▁거네요	-6298
▁과거의	-6299
▁괴롭힐	-6300
▁그러니	-6301
▁기대에	-6302
▁나시는	-6303
▁노후대	-6304
▁되면서	-6305
▁때렸어	-6306
▁말해도	-6307
▁맞는지	-6308
▁먹었어	-6309
▁밖으로	-6310
▁받으신	-6311
▁본인은	-6312
▁비용을	-6313
▁시작한	-6314
▁어떡해	-6315
▁업무도	-6316
▁올랐어	-6317
▁의욕도	-6318
▁일해야	-6319
▁정리해	-6320
▁조용히	-6321
▁좋아져	-6322
▁챙기는	-6323
▁출근을	-6324
▁피하고	-6325
▁했다니	-6326
▁허탈한	-6327
▁현실은	-6328
겠습니다	-6329
▁개선하기	-6330
▁걱정하지	-6331
▁나에게는	-6332
▁남들처럼	-6333
▁물어봐서	-6334
▁불만이야	-6335
▁생각으로	-6336
▁성공해서	-6337
▁손자들이	-6338
▁실망감이	-6339
▁실패했어	-6340
▁얘기하는	-6341
▁이혼했어	-6342
▁일이에요	-6343
▁자책하게	-6344
▁초라하게	-6345
▁크겠어요	-6346
▁부모님이랑	-6347
▁불안하군요	-6348
▁악의적으로	-6349
▁적극적으로	-6350
▁부끄러우셨군요	-6351
▁끌	-6352
▁쇠	-6353
▁총	-6354
럽게	-6355
방에	-6356
▁감기	-6357
▁거부	-6358
▁거에	-6359
▁거울	-6360
▁겁나	-6361
▁과정	-6362
▁꿈에	-6363
▁대충	-6364
▁독서	-6365
▁별거	-6366
▁상세	-6367
▁서른	-6368
▁손님	-6369
▁앞이	-6370
▁어리	-6371
▁일과	-6372
▁작아	-6373
▁지하	-6374
▁팀장	-6375
졌으면	-6376
▁간섭을	-6377
▁국민연	-6378
▁내용이	-6379
▁될까봐	-6380
▁드리고	-6381
▁드세요	-6382
▁몸으로	-6383
▁뭘까요	-6384
▁별로야	-6385
▁분노가	-6386
▁빌려주	-6387
▁수술비	-6388
▁숨기고	-6389
▁시력이	-6390
▁신경도	-6391
▁실제로	-6392
▁업무로	-6393
▁위로해	-6394
▁일까지	-6395
▁적응을	-6396
▁좋지만	-6397
▁죽어서	-6398
▁찾아가	-6399
▁핑계로	-6400
▁허무해	-6401
▁고혈압이	-6402
▁그만둬야	-6403
▁나더라고	-6404
▁누군가가	-6405
▁돌보느라	-6406
▁들어가서	-6407
▁따돌리고	-6408
▁마스크를	-6409
▁반복되는	-6410
▁불편하고	-6411
▁상태에서	-6412
▁심부름을	-6413
▁아내분과	-6414
▁아니었어	-6415
▁안정적인	-6416
▁없어지고	-6417
▁일자리도	-6418
▁일하다가	-6419
▁집사람이	-6420
▁친구라고	-6421
▁회의적인	-6422
▁만성질환이	-6423
▁보시겠어요	-6424
▁부끄러워서	-6425
▁사회적으로	-6426
▁충격받았어	-6427
OO	-6428
▁낭	-6429
겠고	-6430
귀를	-6431
되니	-6432
양이	-6433
향이	-6434
▁OO	-6435
▁걷는	-6436
▁격려	-6437
▁기울	-6438
▁길에	-6439
▁낳을	-6440
▁명품	-6441
▁벅차	-6442
▁벌지	-6443
▁병행	-6444
▁세우	-6445
▁암울	-6446
▁얄미	-6447
▁여름	-6448
▁용기	-6449
▁인턴	-6450
▁짐만	-6451
▁집주	-6452
▁키가	-6453
▁파혼	-6454
▁해줘	-6455
시니까	-6456
았군요	-6457
했다니	-6458
▁관해서	-6459
▁기분에	-6460
▁느꼈어	-6461
▁당뇨에	-6462
▁동료와	-6463
▁만들고	-6464
▁물어볼	-6465
▁믿기지	-6466
▁바라고	-6467
▁발표가	-6468
▁빠르게	-6469
▁살다가	-6470
▁시기가	-6471
▁아이도	-6472
▁않다는	-6473
▁약속한	-6474
▁어찌나	-6475
▁없이는	-6476
▁연봉을	-6477
▁연애도	-6478
▁입원해	-6479
▁전환을	-6480
▁정규직	-6481
▁좋군요	-6482
▁키우는	-6483
▁태어났	-6484
▁해줘야	-6485
▁황혼이	-6486
▁간호사가	-6487
▁결혼까지	-6488
▁구하기가	-6489
▁느껴지고	-6490
▁먹으면서	-6491
▁서운하고	-6492
▁심해졌어	-6493
▁심해지고	-6494
▁아직까지	-6495
▁어울리는	-6496
▁예전에도	-6497
▁자괴감이	-6498
▁졸업하고	-6499
▁걱정되시는	-6500
▁노후준비에	-6501
▁다행이라고	-6502
▁모양이네요	-6503
▁모양이에요	-6504
▁친구들끼리	-6505
▁할아버지가	-6506
▁만성질환으로	-6507
▁받으시겠어요	-6508
▁삐	-6509
▁쪄	-6510
▁쭉	-6511
겠네	-6512
꺼야	-6513
냐며	-6514
드리	-6515
모임	-6516
소기	-6517
싶어	-6518
이션	-6519
주실	-6520
하자	-6521
했고	-6522
▁거죠	-6523
▁견딜	-6524
▁고교	-6525
▁근처	-6526
▁꿈꾸	-6527
▁끊고	-6528
▁끝이	-6529
▁내성	-6530
▁답을	-6531
▁드릴	-6532
▁믿는	-6533
▁방금	-6534
▁버리	-6535
▁버림	-6536
▁불면	-6537
▁세워	-6538
▁수군	-6539
▁신세	-6540
▁실업	-6541
▁요리	-6542
병원에	-6543
았다고	-6544
이어서	-6545
직원이	-6546
▁것인지	-6547
▁고생한	-6548
▁기간이	-6549
▁내일이	-6550
▁노력해	-6551
▁누구나	-6552
▁된다면	-6553
▁모자라	-6554
▁버리고	-6555
▁보내주	-6556
▁사회에	-6557
▁새벽에	-6558
▁성공할	-6559
▁소외된	-6560
▁손주를	-6561
▁시기에	-6562
▁시험도	-6563
▁신고를	-6564
▁아무렇	-6565
▁양심의	-6566
▁어제는	-6567
▁일하기	-6568
▁저녁에	-6569
▁전보다	-6570
▁정도는	-6571
▁줄이야	-6572
▁중소기	-6573
▁최대한	-6574
▁취미를	-6575
▁취업한	-6576
▁편지를	-6577
▁피워서	-6578
▁필요가	-6579
▁한다면	-6580
▁해결이	-6581
▁화나는	-6582
▁건강해지	-6583
▁공부해서	-6584
▁생겼군요	-6585
▁아버지께	-6586
▁아이들은	-6587
▁일하는데	-6588
▁주식으로	-6589
▁줄어드는	-6590
▁챙겨주는	-6591
▁초등학교	-6592
▁키웠는데	-6593
▁평소에도	-6594
▁풀릴까요	-6595
▁속상하군요	-6596
▁안타깝네요	-6597
▁약속했는데	-6598
▁일상생활에	-6599
▁디	-6600
▁밑	-6601
▁쌀	-6602
먹고	-6603
모로	-6604
보단	-6605
부가	-6606
서가	-6607
택을	-6608
▁경비	-6609
▁고집	-6610
▁기가	-6611
▁기원	-6612
▁눈앞	-6613
▁맘이	-6614
▁백내	-6615
▁보신	-6616
▁복권	-6617
▁삶은	-6618
▁시각	-6619
▁애정	-6620
▁연인	-6621
▁오른	-6622
▁올리	-6623
▁일정	-6624
▁잡고	-6625
▁절교	-6626
▁좁아	-6627
▁지병	-6628
▁평범	-6629
▁환갑	-6630
거라고	-6631
었다니	-6632
에게도	-6633
이지만	-6634
하더니	-6635
▁거냐고	-6636
▁건강할	-6637
▁나가야	-6638
▁남겨진	-6639
▁내년에	-6640
▁다니지	-6641
▁대화해	-6642
▁딸한테	-6643
▁떠나보	-6644
▁무리가	-6645
▁보여주	-6646
▁사원이	-6647
▁사이좋	-6648
▁생계가	-6649
▁성적은	-6650
▁손가락	-6651
▁아프게	-6652
▁약해서	-6653
▁음악을	-6654
▁인정을	-6655
▁있다가	-6656
▁자녀가	-6657
▁좋으니	-6658
▁줄이고	-6659
▁취직도	-6660
▁피우는	-6661
▁하루가	-6662
▁혼자야	-6663
▁건강하고	-6664
▁긴장되고	-6665
▁다투셔서	-6666
▁두려워서	-6667
▁막막하네	-6668
▁방어적인	-6669
▁보고서를	-6670
▁비교하게	-6671
▁생각하신	-6672
▁속상해서	-6673
▁아버지와	-6674
▁얘기하고	-6675
▁언니에게	-6676
▁요즘에는	-6677
▁은퇴하면	-6678
▁이유에서	-6679
▁일이세요	-6680
▁좋아하던	-6681
▁좌절감을	-6682
▁편찮으신	-6683
▁가족들이랑	-6684
▁시어머니가	-6685
▁실망스러운	-6686
▁자기들끼리	-6687
▁좋아하는데	-6688
▁죄송스러워	-6689
▁해결될까요	-6690
▁혼란스럽고	-6691
▁괴로우셨군요	-6692
▁서러우시군요	-6693
▁윗	-6694
롭지	-6695
마트	-6696
절한	-6697
▁갑갑	-6698
▁공유	-6699
▁낯선	-6700
▁뇌졸	-6701
▁마냥	-6702
▁맛이	-6703
▁목돈	-6704
▁문자	-6705
▁상해	-6706
▁쌓여	-6707
▁외식	-6708
▁이곳	-6709
▁잔뜩	-6710
▁전체	-6711
▁정체	-6712
▁중인	-6713
▁지도	-6714
▁참견	-6715
▁해내	-6716
까지만	-6717
됐는데	-6718
자리가	-6719
활동을	-6720
▁가치가	-6721
▁감정에	-6722
▁건강식	-6723
▁경험을	-6724
▁관절이	-6725
▁꾸준한	-6726
▁년이나	-6727
▁느끼실	-6728
▁대우를	-6729
▁따님의	-6730
▁매사에	-6731
▁스마트	-6732
▁어울리	-6733
▁여자를	-6734
▁외롭다	-6735
▁일에도	-6736
▁있기를	-6737
▁있잖아	-6738
▁자신감	-6739
▁전에도	-6740
▁좋아졌	-6741
▁지내야	-6742
▁지하철	-6743
▁진학을	-6744
▁편하고	-6745
▁핀잔을	-6746
▁학교도	-6747
▁허리를	-6748
▁가정에서	-6749
▁갑작스런	-6750
▁났겠어요	-6751
▁내일부터	-6752
▁변화시키	-6753
▁상대방이	-6754
▁상처받은	-6755
▁어떡해야	-6756
▁어찌해야	-6757
▁언젠가는	-6758
▁우울하네	-6759
▁좋아하고	-6760
▁좋으셔서	-6761
▁퇴직금이	-6762
▁평소에는	-6763
▁결혼하는데	-6764
▁계획인가요	-6765
▁괜찮으세요	-6766
▁남편분께서	-6767
▁돌아가셨어	-6768
▁싸우셨군요	-6769
▁어떻게하면	-6770
▁어려움으로	-6771
▁일방적으로	-6772
▁좋아지셔서	-6773
▁슬프시겠군요	-6774
▁로	-6775
▁리	-6776
▁쑤	-6777
▁품	-6778
되네	-6779
장암	-6780
주도	-6781
▁결심	-6782
▁골다	-6783
▁구해	-6784
▁남는	-6785
▁낫지	-6786
▁다쳤	-6787
▁머릿	-6788
▁민폐	-6789
▁아냐	-6790
▁어르	-6791
▁월세	-6792
▁유치	-6793
▁일해	-6794
▁자는	-6795
▁제때	-6796
▁쳐서	-6797
▁초대	-6798
▁커닝	-6799
▁학급	-6800
▁학력	-6801
▁학창	-6802
▁후련	-6803
린다고	-6804
방에서	-6805
스럽다	-6806
▁가족도	-6807
▁괴롭네	-6808
▁구하기	-6809
▁나갔어	-6810
▁나만의	-6811
▁나하고	-6812
▁눈물을	-6813
▁다양한	-6814
▁다음에	-6815
▁들어와	-6816
▁말해줄	-6817
▁매일매	-6818
▁면접관	-6819
▁모아서	-6820
▁문자를	-6821
▁문제인	-6822
▁바쁜데	-6823
▁복잡한	-6824
▁불만을	-6825
▁살기가	-6826
▁서류를	-6827
▁심해져	-6828
▁아는데	-6829
▁얘기도	-6830
▁언니만	-6831
▁언니와	-6832
▁없애기	-6833
▁여기는	-6834
▁영감이	-6835
▁인기가	-6836
▁일상이	-6837
▁일해도	-6838
▁좋으실	-6839
▁지금껏	-6840
▁지원해	-6841
▁청소를	-6842
▁컨디션	-6843
▁한동안	-6844
▁해놓고	-6845
▁후에도	-6846
▁힘들지	-6847
▁강아지를	-6848
▁결혼하기	-6849
▁계셨군요	-6850
▁괜찮아질	-6851
▁괴롭히고	-6852
▁괴롭히지	-6853
▁나이인데	-6854
▁떨어질까	-6855
▁못한다는	-6856
▁상태군요	-6857
▁속마음을	-6858
▁아니라는	-6859
▁연애하고	-6860
▁우울하다	-6861
▁의사에게	-6862
▁있었다니	-6863
▁자녀들과	-6864
▁자녀에게	-6865
▁장례식에	-6866
▁찾아와서	-6867
▁챙겨주지	-6868
▁처음부터	-6869
▁소식이네요	-6870
▁이렇게까지	-6871
▁프로젝트에	-6872
▁항암치료를	-6873
▁무서우시군요	-6874
▁고민이시겠어요	-6875
▁부모님으로부터	-6876
▁턱	-6877
니깐	-6878
동생	-6879
라우	-6880
명이	-6881
뿐인	-6882
주를	-6883
함에	-6884
▁겠어	-6885
▁굳이	-6886
▁나간	-6887
▁뒤집	-6888
▁목소	-6889
▁반이	-6890
▁발전	-6891
▁비상	-6892
▁서먹	-6893
▁신용	-6894
▁양육	-6895
▁영업	-6896
▁유독	-6897
▁이리	-6898
▁주무	-6899
▁처방	-6900
▁학습	-6901
▁해본	-6902
당하고	-6903
들이랑	-6904
사건건	-6905
아버지	-6906
있어서	-6907
▁가지로	-6908
▁거리를	-6909
▁골다공	-6910
▁과장이	-6911
▁귀찮은	-6912
▁그랬나	-6913
▁그러게	-6914
▁나누어	-6915
▁대상이	-6916
▁되려면	-6917
▁마음만	-6918
▁머릿속	-6919
▁면접이	-6920
▁보내야	-6921
▁부럽고	-6922
▁불러서	-6923
▁비싸서	-6924
▁상의도	-6925
▁안달이	-6926
▁어쩌나	-6927
▁외로움	-6928
▁외롭네	-6929
▁이러는	-6930
▁이루어	-6931
▁자녀들	-6932
▁자존심	-6933
▁전화도	-6934
▁학교가	-6935
▁해보는	-6936
▁해봐야	-6937
드립니다	-6938
▁갈등으로	-6939
▁기분전환	-6940
▁다퉜는데	-6941
▁대화해야	-6942
▁들어가고	-6943
▁말해주실	-6944
▁못했군요	-6945
▁받으려고	-6946
▁사사건건	-6947
▁생활하는	-6948
▁성공했어	-6949
▁시작해서	-6950
▁없더라고	-6951
▁여러모로	-6952
▁잘못으로	-6953
▁전화해서	-6954
▁처음이라	-6955
▁친구분은	-6956
▁친척들이	-6957
▁탓이라고	-6958
▁팀장님께	-6959
▁포기해야	-6960
▁하겠다고	-6961
▁힘들지만	-6962
▁결혼하라고	-6963
▁놀랐겠어요	-6964
▁받으셨나요	-6965
▁깎	-6966
▁뜸	-6967
▁뱃	-6968
▁찬	-6969
값을	-6970
경색	-6971
근무	-6972
만간	-6973
목을	-6974
버려	-6975
중을	-6976
치기	-6977
▁갚을	-6978
▁기한	-6979
▁나게	-6980
▁넣어	-6981
▁달려	-6982
▁많을	-6983
▁모여	-6984
▁반려	-6985
▁반장	-6986
▁발을	-6987
▁봉사	-6988
▁분들	-6989
▁수시	-6990
▁시대	-6991
▁시한	-6992
▁써주	-6993
▁여겨	-6994
▁이민	-6995
▁자퇴	-6996
▁짝이	-6997
▁쪄서	-6998
▁천식	-6999
▁크신	-7000
▁학폭	-7001
▁허망	-7002
시키고	-7003
으려면	-7004
▁가족에	-7005
▁같지가	-7006
▁구조조	-7007
▁길에서	-7008
▁날아갈	-7009
▁내에서	-7010
▁다투게	-7011
▁동시에	-7012
▁드는데	-7013
▁들어야	-7014
▁때리고	-7015
▁머리를	-7016
▁먹어도	-7017
▁무거운	-7018
▁반응에	-7019
▁보기도	-7020
▁불안정	-7021
▁사람에	-7022
▁산책을	-7023
▁살았나	-7024
▁살았어	-7025
▁새롭게	-7026
▁선택한	-7027
▁신입이	-7028
▁심정을	-7029
▁아이는	-7030
▁애들도	-7031
▁없잖아	-7032
▁유일한	-7033
▁인연을	-7034
▁일어난	-7035
▁일어날	-7036
▁일하지	-7037
▁잘해야	-7038
▁전까지	-7039
▁점심을	-7040
▁조만간	-7041
▁줄었어	-7042
▁중이라	-7043
▁지난달	-7044
▁지난번	-7045
▁쳐다보	-7046
▁평가를	-7047
▁피해가	-7048
▁하시니	-7049
하겠네요	-7050
하면서도	-7051
▁괜찮은데	-7052
▁다음에는	-7053
▁당하는데	-7054
▁동생이랑	-7055
▁되더라고	-7056
▁마음에서	-7057
▁부인께서	-7058
▁상황에선	-7059
▁생각해보	-7060
▁신뢰하고	-7061
▁여유로운	-7062
▁원하시는	-7063
▁이야기는	-7064
▁인정받지	-7065
▁죄책감도	-7066
▁직원에게	-7067
우셨겠어요	-7068
▁고통스러워	-7069
▁설명해주실	-7070
▁아버지께서	-7071
▁아버지에게	-7072
▁일상생활이	-7073
▁직원들에게	-7074
▁걱정스러우시군요	-7075
▁닥	-7076
▁닿	-7077
▁뼈	-7078
▁쥐	-7079
거지	-7080
구를	-7081
하죠	-7082
하진	-7083
한가	-7084
▁겪는	-7085
▁고용	-7086
▁노여	-7087
▁도통	-7088
▁듯이	-7089
▁떠났	-7090
▁맡겨	-7091
▁벌기	-7092
▁불평	-7093
▁빠른	-7094
▁스타	-7095
▁시킨	-7096
▁안아	-7097
▁알지	-7098
▁일의	-7099
▁전과	-7100
▁제외	-7101
▁조원	-7102
▁주동	-7103
▁착각	-7104
▁패배	-7105
▁학기	-7106
▁흡연	-7107
라우마	-7108
사에서	-7109
으신가	-7110
▁가격이	-7111
▁가져다	-7112
▁강아지	-7113
▁겹쳐서	-7114
▁고맙고	-7115
▁구하는	-7116
▁기쁘신	-7117
▁나에겐	-7118
▁났는데	-7119
▁당뇨병	-7120
▁덜어낼	-7121
▁된다니	-7122
▁뒤집어	-7123
▁따뜻한	-7124
▁따라가	-7125
▁맞벌이	-7126
▁물어봐	-7127
▁생각과	-7128
▁시험은	-7129
▁실력이	-7130
▁쓸모가	-7131
▁온다고	-7132
▁움직일	-7133
▁음식도	-7134
▁전공을	-7135
▁젊은이	-7136
▁친구라	-7137
▁하기도	-7138
▁하셔야	-7139
▁했다가	-7140
▁했을까	-7141
▁혼날까	-7142
▁흥미도	-7143
▁흥분돼	-7144
려는군요	-7145
스러움을	-7146
해버렸어	-7147
▁건강관리	-7148
▁너무나도	-7149
▁당했는데	-7150
▁되었다니	-7151
▁들었는지	-7152
▁딸아이가	-7153
▁떨어지면	-7154
▁무언가가	-7155
▁물어보는	-7156
▁바쁘다고	-7157
▁받아주지	-7158
▁부양해야	-7159
▁부장님께	-7160
▁불안감이	-7161
▁사라져서	-7162
▁사장님께	-7163
▁스마트폰	-7164
▁아드님과	-7165
▁않겠다고	-7166
▁이기적인	-7167
▁이유라도	-7168
▁지금처럼	-7169
▁지난주에	-7170
▁챙겨줘서	-7171
▁초조하고	-7172
▁충격적이	-7173
▁컴퓨터를	-7174
▁트라우마	-7175
▁하나둘씩	-7176
▁하나하나	-7177
▁한다는데	-7178
▁해결하고	-7179
▁혼자라는	-7180
▁회복하기	-7181
▁휠체어를	-7182
스러우신가	-7183
▁계획이군요	-7184
▁그러시나요	-7185
▁들어왔는데	-7186
▁비관적이야	-7187
▁사랑한다고	-7188
▁생각해보니	-7189
▁성공적으로	-7190
▁스스로에게	-7191
▁않으신가요	-7192
▁잃으셨군요	-7193
▁자녀분들과	-7194
▁취업했는데	-7195
▁친구분에게	-7196
▁회사에서는	-7197
스러웠겠어요	-7198
▁걱정되는군요	-7199
▁떨어지셨군요	-7200
▁부러우시군요	-7201
▁실망스러우시군요	-7202
▁당혹스러우시겠어요	-7203
▁딴	-7204
▁푹	-7205
감과	-7206
건데	-7207
고에	-7208
기념	-7209
님은	-7210
로만	-7211
로운	-7212
무지	-7213
서에	-7214
시기	-7215
시네	-7216
줌마	-7217
함과	-7218
해졌	-7219
▁그간	-7220
▁꾸지	-7221
▁나질	-7222
▁돈에	-7223
▁마라	-7224
▁믿기	-7225
▁백만	-7226
▁벗이	-7227
▁빠진	-7228
▁뽑아	-7229
▁염세	-7230
▁워낙	-7231
▁있길	-7232
▁잘나	-7233
▁잡혀	-7234
▁전원	-7235
▁조카	-7236
▁추석	-7237
▁출신	-7238
▁편은	-7239
▁하락	-7240
▁한국	-7241
▁해놓	-7242
▁형제	-7243
것같아	-7244
달라는	-7245
랍니다	-7246
함에서	-7247
▁가져가	-7248
▁견디기	-7249
▁고독해	-7250
▁고민해	-7251
▁금전적	-7252
▁급여가	-7253
▁나가면	-7254
▁내셔서	-7255
▁내일은	-7256
▁냈는데	-7257
▁도무지	-7258
▁마음껏	-7259
▁말해주	-7260
▁모르니	-7261
▁받는데	-7262
▁상사는	-7263
▁상세히	-7264
▁생기니	-7265
▁생활도	-7266
▁선택이	-7267
▁성격을	-7268
▁시기를	-7269
▁신체적	-7270
▁실망한	-7271
▁싶었어	-7272
▁싶지가	-7273
▁싸우지	-7274
▁아줌마	-7275
▁않나요	-7276
▁없었던	-7277
▁여기서	-7278
▁연금을	-7279
▁연애할	-7280
▁응원해	-7281
▁중에서	-7282
▁차이로	-7283
▁찾아보	-7284
▁치밀어	-7285
▁친구만	-7286
▁현실에	-7287
▁회식을	-7288
▁가라앉힐	-7289
▁건강했던	-7290
▁넘었는데	-7291
▁말실수를	-7292
▁비교되는	-7293
▁사라졌어	-7294
▁사람이랑	-7295
▁상황으로	-7296
▁생각에서	-7297
▁않았지만	-7298
▁없어지는	-7299
▁여태까지	-7300
▁일상생활	-7301
▁일하느라	-7302
▁자존심이	-7303
▁혼자만의	-7304
▁희생하는	-7305
지시는군요	-7306
▁권고사직을	-7307
▁다가오는데	-7308
▁모르겠는데	-7309
▁무기력하고	-7310
▁불안하신가	-7311
▁사회생활을	-7312
▁스트레스도	-7313
▁어머니에게	-7314
▁유지하려면	-7315
▁줄어들어서	-7316
▁중요하다고	-7317
▁스트레스받고	-7318
▁축하드립니다	-7319
▁해결하셨나요	-7320
▁놔	-7321
▁측	-7322
▁혜	-7323
▁홍	-7324
가분	-7325
당해	-7326
려나	-7327
시켰	-7328
애가	-7329
와는	-7330
증에	-7331
지신	-7332
회를	-7333
▁가실	-7334
▁걷기	-7335
▁고칠	-7336
▁귀농	-7337
▁늦잠	-7338
▁돌볼	-7339
▁몰아	-7340
▁바뀐	-7341
▁반항	-7342
▁방을	-7343
▁보상	-7344
▁성장	-7345
▁쇠약	-7346
▁심리	-7347
▁쓸데	-7348
▁아픔	-7349
▁안전	-7350
▁예비	-7351
▁요실	-7352
▁유행	-7353
▁자산	-7354
▁자취	-7355
▁지는	-7356
▁추가	-7357
▁후유	-7358
거같아	-7359
려는데	-7360
이라면	-7361
인으로	-7362
있는데	-7363
점에서	-7364
지는데	-7365
하셨던	-7366
▁그만둔	-7367
▁극복해	-7368
▁기업에	-7369
▁나가기	-7370
▁나더라	-7371
▁녀석이	-7372
▁뇌졸중	-7373
▁눈앞이	-7374
▁당뇨로	-7375
▁마시면	-7376
▁믿음을	-7377
▁받아도	-7378
▁생일에	-7379
▁손님이	-7380
▁수술이	-7381
▁슬퍼져	-7382
▁슬프신	-7383
▁악화로	-7384
▁외롭게	-7385
▁위로가	-7386
▁이상해	-7387
▁좋았던	-7388
▁지쳤어	-7389
▁취업은	-7390
▁커피를	-7391
▁퇴직금	-7392
▁편하지	-7393
▁편해지	-7394
▁표정이	-7395
▁하는게	-7396
▁합격을	-7397
▁홀가분	-7398
▁활동이	-7399
하시느라	-7400
▁구체적인	-7401
▁그랬는지	-7402
▁느껴져요	-7403
▁되시나요	-7404
▁따님에게	-7405
▁매일매일	-7406
▁벌써부터	-7407
▁사이좋게	-7408
▁상황인데	-7409
▁생일인데	-7410
▁선생님을	-7411
▁속상하다	-7412
▁실패해서	-7413
▁쓰러져서	-7414
▁아들이랑	-7415
▁아버지를	-7416
▁안타깝고	-7417
▁앞에서는	-7418
▁어떻게든	-7419
▁억울함을	-7420
▁이제라도	-7421
▁이해하지	-7422
▁일하면서	-7423
▁자녀들을	-7424
▁책임감이	-7425
▁충격적인	-7426
▁하던가요	-7427
▁겪으셨군요	-7428
▁결혼생활이	-7429
▁고민이군요	-7430
▁사람들보다	-7431
▁신체장애가	-7432
▁이야기하는	-7433
▁투자했는데	-7434
▁한심스러워	-7435
스러우셨군요	-7436
▁생각하셨나요	-7437
▁이야기해주실	-7438
▁얘기해주시겠어요	-7439
▁틱	-7440
관에	-7441
두지	-7442
마땅	-7443
문제	-7444
분께	-7445
뿐만	-7446
소를	-7447
아이	-7448
이너	-7449
히고	-7450
▁거는	-7451
▁마흔	-7452
▁말투	-7453
▁망쳐	-7454
▁맞이	-7455
▁못살	-7456
▁붙을	-7457
▁비하	-7458
▁신중	-7459
▁싶던	-7460
▁쌓이	-7461
▁쓰레	-7462
▁안부	-7463
▁예약	-7464
▁올릴	-7465
▁옷이	-7466
▁외에	-7467
▁이룬	-7468
▁이름	-7469
▁잊고	-7470
▁재활	-7471
▁주사	-7472
▁치우	-7473
▁효과	-7474
셨거든	-7475
였거든	-7476
자리에	-7477
하셔야	-7478
해지지	-7479
▁가책을	-7480
▁것이라	-7481
▁결과는	-7482
▁결정이	-7483
▁관리에	-7484
▁구하지	-7485
▁끝나면	-7486
▁끝나서	-7487
▁나가게	-7488
▁날씨가	-7489
▁느긋한	-7490
▁당연한	-7491
▁두려움	-7492
▁마비가	-7493
▁많았어	-7494
▁말할지	-7495
▁못마땅	-7496
▁바람이	-7497
▁받으러	-7498
▁보내지	-7499
▁부러우	-7500
▁뻔했어	-7501
▁사이를	-7502
▁사정을	-7503
▁상태로	-7504
▁시간은	-7505
▁알면서	-7506
▁어떤지	-7507
▁연애는	-7508
▁외로울	-7509
▁요리를	-7510
▁인스타	-7511
▁일하던	-7512
▁자신만	-7513
▁재능이	-7514
▁전달할	-7515
▁졸업을	-7516
▁졸업한	-7517
▁지각을	-7518
▁지지를	-7519
▁직업도	-7520
▁체력을	-7521
▁탓이지	-7522
▁티브이	-7523
▁편이야	-7524
▁하루를	-7525
▁하루에	-7526
▁하시면	-7527
▁회사로	-7528
스러우신	-7529
▁감사하고	-7530
▁당황해서	-7531
▁대처하면	-7532
▁바랍니다	-7533
▁바쁘셔서	-7534
▁생각할까	-7535
▁성가시게	-7536
▁얘기해서	-7537
▁어머니는	-7538
▁우울해서	-7539
▁유지하는	-7540
▁지났는데	-7541
▁친구분을	-7542
▁친구처럼	-7543
▁할머니는	-7544
▁할머니를	-7545
▁행동해야	-7546
▁힘드셨을	-7547
▁걱정스러운	-7548
▁금전적으로	-7549
▁대인관계를	-7550
▁명예퇴직을	-7551
▁상황이네요	-7552
▁생각이네요	-7553
▁아이디어를	-7554
▁퇴직금으로	-7555
▁하실건가요	-7556
▁해고당했어	-7557
스러우신가요	-7558
▁원하시는군요	-7559
▁넓	-7560
▁잤	-7561
거라	-7562
거려	-7563
들고	-7564
마조	-7565
수도	-7566
수준	-7567
었대	-7568
하대	-7569
히는	-7570
▁간에	-7571
▁갖지	-7572
▁갚아	-7573
▁과장	-7574
▁깜깜	-7575
▁낳은	-7576
▁도시	-7577
▁사장	-7578
▁세계	-7579
▁수정	-7580
▁얻은	-7581
▁여의	-7582
▁영원	-7583
▁오락	-7584
▁원치	-7585
▁이모	-7586
▁일으	-7587
▁자동	-7588
▁재택	-7589
▁절약	-7590
▁정성	-7591
▁챙길	-7592
▁크고	-7593
▁키웠	-7594
▁통장	-7595
▁폐를	-7596
▁피아	-7597
▁하반	-7598
▁환기	-7599
들어서	-7600
마조마	-7601
어나가	-7602
하시게	-7603
해지네	-7604
▁기쁘게	-7605
▁뒤처진	-7606
▁드라마	-7607
▁들킬까	-7608
▁마련할	-7609
▁마음과	-7610
▁먹으러	-7611
▁뭐라도	-7612
▁방법에	-7613
▁버거워	-7614
▁변화를	-7615
▁보증을	-7616
▁뿐인데	-7617
▁사는지	-7618
▁사라진	-7619
▁산다고	-7620
▁서러운	-7621
▁손녀가	-7622
▁수행평	-7623
▁시도를	-7624
▁시작해	-7625
▁애인과	-7626
▁어이없	-7627
▁얼굴에	-7628
▁없는지	-7629
▁연예인	-7630
▁예전과	-7631
▁용돈이	-7632
▁의문이	-7633
▁정년이	-7634
▁주어서	-7635
▁증세가	-7636
▁지나가	-7637
▁진심을	-7638
▁질투를	-7639
▁짜증만	-7640
▁찾아와	-7641
▁축하해	-7642
▁학대를	-7643
▁학업을	-7644
▁화장실	-7645
▁힘드니	-7646
었겠어요	-7647
▁결혼기념	-7648
▁경제력이	-7649
▁괜찮아지	-7650
▁기대했던	-7651
▁노인들이	-7652
▁누구보다	-7653
▁늦게까지	-7654
▁다음에도	-7655
▁답답함을	-7656
▁도와줘서	-7657
▁들어가면	-7658
▁마누라가	-7659
▁만나기로	-7660
▁못했다는	-7661
▁받아들여	-7662
▁비교해서	-7663
▁사람처럼	-7664
▁속상했어	-7665
▁아닐까요	-7666
▁오셨군요	-7667
▁오해해서	-7668
▁완벽하게	-7669
▁이야기도	-7670
▁잃어버린	-7671
▁자녀분들	-7672
▁조마조마	-7673
▁죄송하고	-7674
▁준비해서	-7675
▁직원들과	-7676
▁직원들의	-7677
▁누군가에게	-7678
▁말씀하시는	-7679
▁무기력해져	-7680
▁이대로라면	-7681
▁인스타그램	-7682
▁못하시는군요	-7683
▁아프셨겠어요	-7684
▁덩	-7685
▁섞	-7686
계가	-7687
도는	-7688
듯이	-7689
르지	-7690
면을	-7691
무게	-7692
발이	-7693
버릴	-7694
일도	-7695
자에	-7696
저런	-7697
치에	-7698
하래	-7699
▁갚고	-7700
▁고장	-7701
▁국어	-7702
▁끝난	-7703
▁낫게	-7704
▁되돌	-7705
▁된대	-7706
▁등교	-7707
▁맞을	-7708
▁모을	-7709
▁모이	-7710
▁무력	-7711
▁밉고	-7712
▁불려	-7713
▁상한	-7714
▁수고	-7715
▁시킬	-7716
▁어두	-7717
▁오니	-7718
▁올까	-7719
▁이동	-7720
▁인지	-7721
▁있기	-7722
▁접근	-7723
▁주기	-7724
▁지어	-7725
▁추스	-7726
▁피운	-7727
▁해줬	-7728
▁흘러	-7729
님에게	-7730
드리지	-7731
머리가	-7732
하기는	-7733
한테만	-7734
했을까	-7735
▁걸리고	-7736
▁나빠서	-7737
▁눈치만	-7738
▁다투는	-7739
▁당하지	-7740
▁대비를	-7741
▁대학도	-7742
▁대학원	-7743
▁대해야	-7744
▁뒤늦게	-7745
▁드려요	-7746
▁떨리고	-7747
▁떨쳐낼	-7748
▁많다는	-7749
▁몸무게	-7750
▁무거워	-7751
▁반응을	-7752
▁시한부	-7753
▁싫으신	-7754
▁심해진	-7755
▁아프다	-7756
▁안좋은	-7757
▁어울릴	-7758
▁엉망이	-7759
▁여유를	-7760
▁여자랑	-7761
▁연애에	-7762
▁오라고	-7763
▁요즘엔	-7764
▁일이죠	-7765
▁존재가	-7766
▁주사를	-7767
▁줄이기	-7768
▁집값이	-7769
▁치료도	-7770
▁탈모가	-7771
▁폭력이	-7772
▁피해서	-7773
▁하던데	-7774
▁형이랑	-7775
▁환경이	-7776
▁희망을	-7777
하셨네요	-7778
▁개인적인	-7779
▁걸렸다는	-7780
▁것이군요	-7781
▁그동안의	-7782
▁극복하는	-7783
▁나빠지고	-7784
▁노력해서	-7785
▁누군가를	-7786
▁당연하게	-7787
▁당연하지	-7788
▁들어왔어	-7789
▁말씀드릴	-7790
▁모른다는	-7791
▁바보인가	-7792
▁불쌍하게	-7793
▁소득수준	-7794
▁수학여행	-7795
▁승진에서	-7796
▁쓸쓸하고	-7797
▁아버지는	-7798
▁아픈데도	-7799
▁어쩌다가	-7800
▁외로움이	-7801
▁이러는지	-7802
▁이런저런	-7803
▁있었거든	-7804
▁있었지만	-7805
▁좋겠군요	-7806
▁좋아지지	-7807
▁직원들을	-7808
▁탈락했어	-7809
▁하셨다니	-7810
▁고혈압으로	-7811
▁불편하셔서	-7812
▁아프신가요	-7813
▁의사소통이	-7814
▁기쁘셨겠어요	-7815
▁따돌림당하는	-7816
▁당혹스러우시군요	-7817
▁던	-7818
▁덮	-7819
▁삭	-7820
▁캠	-7821
▁탄	-7822
▁텃	-7823
급이	-7824
더러	-7825
량이	-7826
물이	-7827
부인	-7828
주가	-7829
▁가계	-7830
▁가방	-7831
▁기저	-7832
▁날려	-7833
▁내에	-7834
▁다툰	-7835
▁답이	-7836
▁데는	-7837
▁듯한	-7838
▁마다	-7839
▁번이	-7840
▁보탬	-7841
▁사수	-7842
▁어딜	-7843
▁운이	-7844
▁원활	-7845
▁자라	-7846
▁주어	-7847
▁즐길	-7848
▁창업	-7849
▁축소	-7850
▁필기	-7851
▁한잔	-7852
▁형과	-7853
▁화만	-7854
다가도	-7855
되니까	-7856
한테는	-7857
▁가셔서	-7858
▁것부터	-7859
▁기미가	-7860
▁기쁘다	-7861
▁나는데	-7862
▁누그러	-7863
▁뉴스를	-7864
▁늘어서	-7865
▁데려다	-7866
▁등록금	-7867
▁마라톤	-7868
▁많아져	-7869
▁받아주	-7870
▁보험이	-7871
▁생활은	-7872
▁서로의	-7873
▁성적표	-7874
▁어르신	-7875
▁언니를	-7876
▁영화를	-7877
▁육아를	-7878
▁입원을	-7879
▁잘렸어	-7880
▁장난을	-7881
▁적당히	-7882
▁정신적	-7883
▁주식투	-7884
▁직원을	-7885
▁찾아야	-7886
▁통하지	-7887
▁학교폭	-7888
▁회사도	-7889
▁결혼식이	-7890
▁고립감을	-7891
▁들어오는	-7892
▁많아졌어	-7893
▁많아지고	-7894
▁몰라줘서	-7895
▁무슨일이	-7896
▁상처받았	-7897
▁서로에게	-7898
▁않았다고	-7899
▁어렵군요	-7900
▁억울하게	-7901
▁유지하고	-7902
▁이혼하신	-7903
▁재정적인	-7904
▁재택근무	-7905
▁지인들이	-7906
▁한심하다	-7907
▁걱정하시는	-7908
▁고백했는데	-7909
▁공황장애가	-7910
▁기대했는데	-7911
▁노후준비로	-7912
▁다행이군요	-7913
▁모르겠지만	-7914
▁미안하기도	-7915
▁신입사원이	-7916
▁심하시군요	-7917
▁여자친구는	-7918
▁자랑스러워	-7919
▁준비하는데	-7920
▁친구분들과	-7921
▁팀원들에게	-7922
▁든든하시겠어요	-7923
▁깔	-7924
▁엎	-7925
▁콘	-7926
▁툭	-7927
▁헷	-7928
▁훈	-7929
계획	-7930
나봐	-7931
날에	-7932
다른	-7933
라며	-7934
로워	-7935
상황	-7936
소개	-7937
슐린	-7938
스피	-7939
연이	-7940
잡고	-7941
크를	-7942
▁걔네	-7943
▁고졸	-7944
▁공허	-7945
▁과중	-7946
▁까다	-7947
▁나라	-7948
▁노릇	-7949
▁다짐	-7950
▁달고	-7951
▁되길	-7952
▁된다	-7953
▁드러	-7954
▁들키	-7955
▁듯해	-7956
▁몸의	-7957
▁미혼	-7958
▁방치	-7959
▁버틸	-7960
▁벗을	-7961
▁부자	-7962
▁뺏어	-7963
▁소비	-7964
▁싫을	-7965
▁애쓰	-7966
▁이틀	-7967
▁잘생	-7968
▁적고	-7969
▁전해	-7970
▁정부	-7971
▁지고	-7972
▁짝을	-7973
▁커플	-7974
▁한다	-7975
▁헷갈	-7976
거에요	-7977
뿐인데	-7978
적이라	-7979
하기에	-7980
▁가로채	-7981
▁가벼운	-7982
▁감기에	-7983
▁거잖아	-7984
▁걸리면	-7985
▁것에는	-7986
▁계획에	-7987
▁기대돼	-7988
▁기억을	-7989
▁나빠진	-7990
▁나셨나	-7991
▁날이야	-7992
▁노력에	-7993
▁누워만	-7994
▁느껴질	-7995
▁늦어서	-7996
▁다투고	-7997
▁대기업	-7998
▁대부분	-7999
▁동료들	-8000
▁되지만	-8001
▁들려서	-8002
▁만나도	-8003
▁말고는	-8004
▁보셔서	-8005
▁부인과	-8006
▁불쌍한	-8007
▁불화가	-8008
▁속상할	-8009
▁시도할	-8010
▁싶나요	-8011
▁아프신	-8012
▁안쓰럽	-8013
▁않기로	-8014
▁알았던	-8015
▁엄마도	-8016
▁없으신	-8017
▁연락할	-8018
▁오래전	-8019
▁왕따가	-8020
▁요새는	-8021
▁이러고	-8022
▁이별을	-8023
▁인슐린	-8024
▁인하여	-8025
▁있다네	-8026
▁잘해줄	-8027
▁전망이	-8028
▁주시는	-8029
▁질문에	-8030
▁초라해	-8031
▁통장에	-8032
▁학원도	-8033
▁행동은	-8034
▁화목한	-8035
▁환자가	-8036
▁후에는	-8037
▁건망증이	-8038
▁그런데도	-8039
▁노력하는	-8040
▁다녔는데	-8041
▁다툼으로	-8042
▁답답하네	-8043
▁되었다고	-8044
▁맞았는데	-8045
▁몰라주는	-8046
▁믿었는데	-8047
▁병원비도	-8048
▁부하직원	-8049
▁불편함을	-8050
▁생활비도	-8051
▁속상함을	-8052
▁스스로를	-8053
▁실망감을	-8054
▁아이들의	-8055
▁않더라고	-8056
▁않았을까	-8057
▁알아봐야	-8058
▁어떡하나	-8059
▁예상보다	-8060
▁우울증도	-8061
▁있으려니	-8062
▁있을지도	-8063
▁잘한다고	-8064
▁장학금을	-8065
▁주셨군요	-8066
▁줄어들어	-8067
▁지난번에	-8068
▁직장생활	-8069
▁태어나서	-8070
▁폭력으로	-8071
▁헤어지고	-8072
▁힘드셔서	-8073
▁가족분들이	-8074
▁다이어트를	-8075
▁무가치하게	-8076
▁잃어버렸어	-8077
▁좋았겠어요	-8078
▁직장에서의	-8079
▁크셨겠어요	-8080
▁걱정스러우시겠어요	-8081
▁뚜	-8082
김에	-8083
되서	-8084
드를	-8085
만을	-8086
먹는	-8087
스가	-8088
시던	-8089
웠을	-8090
으며	-8091
차가	-8092
퇴근	-8093
형편	-8094
회가	-8095
▁가뜩	-8096
▁가볍	-8097
▁교내	-8098
▁끊을	-8099
▁낭비	-8100
▁다소	-8101
▁달이	-8102
▁독촉	-8103
▁마찬	-8104
▁무겁	-8105
▁바깥	-8106
▁방관	-8107
▁배울	-8108
▁부려	-8109
▁살을	-8110
▁선뜻	-8111
▁속을	-8112
▁수험	-8113
▁스승	-8114
▁실력	-8115
▁욕심	-8116
▁우승	-8117
▁이중	-8118
▁인제	-8119
▁조직	-8120
▁죽기	-8121
▁코앞	-8122
▁팀이	-8123
▁팔을	-8124
▁편만	-8125
▁했대	-8126
▁행사	-8127
▁효율	-8128
까지도	-8129
놨는데	-8130
러워서	-8131
시려고	-8132
음에도	-8133
하겠지	-8134
한다면	-8135
▁가지게	-8136
▁걱정할	-8137
▁경쟁이	-8138
▁계약을	-8139
▁괜찮을	-8140
▁남편에	-8141
▁노력할	-8142
▁놀림을	-8143
▁대학생	-8144
▁돌아갈	-8145
▁들기도	-8146
▁등급이	-8147
▁때리는	-8148
▁많군요	-8149
▁말씀에	-8150
▁면접도	-8151
▁뭔가요	-8152
▁믿겠어	-8153
▁보시는	-8154
▁분들은	-8155
▁비밀로	-8156
▁사수가	-8157
▁상담할	-8158
▁상황은	-8159
▁소득도	-8160
▁수업이	-8161
▁식습관	-8162
▁실적을	-8163
▁심부름	-8164
▁안에서	-8165
▁약해지	-8166
▁없었을	-8167
▁연금이	-8168
▁외출을	-8169
▁우리집	-8170
▁입원한	-8171
▁잘못도	-8172
▁잡히지	-8173
▁적부터	-8174
▁정리를	-8175
▁좋네요	-8176
▁지쳐서	-8177
▁차도가	-8178
▁철저히	-8179
▁체중이	-8180
▁출산에	-8181
▁취약한	-8182
▁친구네	-8183
▁친구야	-8184
▁큰소리	-8185
▁텐데요	-8186
▁통하는	-8187
하겠군요	-8188
▁가뜩이나	-8189
▁극복해야	-8190
▁남들에게	-8191
▁느끼셔서	-8192
▁동료들의	-8193
▁들어오지	-8194
▁멀어질까	-8195
▁벗어나는	-8196
▁사람인가	-8197
▁생각했어	-8198
▁심해지는	-8199
▁엄마아빠	-8200
▁의식하게	-8201
▁일이신지	-8202
▁입장에서	-8203
▁자기소개	-8204
▁줄어들고	-8205
▁취업해야	-8206
▁취직해서	-8207
▁키우느라	-8208
▁하늘나라	-8209
▁해달라고	-8210
▁해주셔서	-8211
▁가족들과의	-8212
▁건강관리에	-8213
▁교통사고가	-8214
▁생각하셔서	-8215
▁어려워졌어	-8216
▁요양병원에	-8217
▁자연스럽게	-8218
▁친구들처럼	-8219
▁학교생활을	-8220
▁걱정되시나요	-8221
▁기쁘시겠군요	-8222
갈까	-8223
놔서	-8224
당할	-8225
변을	-8226
성에	-8227
이다	-8228
이러	-8229
익을	-8230
임을	-8231
집에	-8232
치료	-8233
▁가보	-8234
▁가사	-8235
▁강박	-8236
▁공개	-8237
▁규칙	-8238
▁기특	-8239
▁눈도	-8240
▁대상	-8241
▁뒤쳐	-8242
▁들여	-8243
▁로또	-8244
▁마찰	-8245
▁마트	-8246
▁먹게	-8247
▁무의	-8248
▁물을	-8249
▁반영	-8250
▁밤을	-8251
▁번을	-8252
▁변변	-8253
▁봐주	-8254
▁부리	-8255
▁부장	-8256
▁불신	-8257
▁빚만	-8258
▁사모	-8259
▁성인	-8260
▁술과	-8261
▁실제	-8262
▁애교	-8263
▁얘길	-8264
▁에스	-8265
▁입양	-8266
▁저지	-8267
▁주문	-8268
▁줄까	-8269
▁지르	-8270
▁차분	-8271
▁척도	-8272
▁탓이	-8273
▁테니	-8274
▁퍼뜨	-8275
▁힘겨	-8276
감으로	-8277
거려서	-8278
렸더니	-8279
버리고	-8280
신다고	-8281
하나요	-8282
▁고기를	-8283
▁고민되	-8284
▁날짜를	-8285
▁내려가	-8286
▁노트를	-8287
▁놀리는	-8288
▁능력도	-8289
▁대학이	-8290
▁도움도	-8291
▁돈인데	-8292
▁드시고	-8293
▁든든해	-8294
▁들어볼	-8295
▁마시는	-8296
▁마치고	-8297
▁만남이	-8298
▁몰라주	-8299
▁미루고	-8300
▁보답을	-8301
▁보람을	-8302
▁보시고	-8303
▁부모와	-8304
▁부부는	-8305
▁분명해	-8306
▁비웃는	-8307
▁선물해	-8308
▁성격도	-8309
▁수능이	-8310
▁수준이	-8311
▁슬프게	-8312
▁시력을	-8313
▁시작할	-8314
▁신경질	-8315
▁어디를	-8316
▁언니의	-8317
▁연락해	-8318
▁우리의	-8319
▁이직한	-8320
▁인정받	-8321
▁일하다	-8322
▁자신에	-8323
▁재혼을	-8324
▁정도면	-8325
▁지원할	-8326
▁지치신	-8327
▁차질이	-8328
▁처리를	-8329
▁초라한	-8330
▁태어날	-8331
▁터놓고	-8332
▁편인데	-8333
▁희생을	-8334
스럽기도	-8335
스럽다고	-8336
하시면서	-8337
▁가버렸어	-8338
▁걸리셔서	-8339
▁고민으로	-8340
▁극복하면	-8341
▁당할까봐	-8342
▁돌아가셨	-8343
▁동기들이	-8344
▁들더라고	-8345
▁모른다고	-8346
▁무능력한	-8347
▁무엇부터	-8348
▁받으시는	-8349
▁방향으로	-8350
▁상의해야	-8351
▁소개팅을	-8352
▁슬프기도	-8353
▁아무렇지	-8354
▁아프다는	-8355
▁안좋아서	-8356
▁않으신가	-8357
▁없으면서	-8358
▁예전보다	-8359
▁오락가락	-8360
▁운동하고	-8361
▁일어나지	-8362
▁일하기가	-8363
▁잘하는데	-8364
▁좋으세요	-8365
▁중이군요	-8366
▁짜증나는	-8367
▁창피해서	-8368
▁피곤하고	-8369
▁화장실에	-8370
▁가시는군요	-8371
▁결혼한다고	-8372
▁그러신가요	-8373
▁당혹스러운	-8374
▁들어가는데	-8375
▁들어갔는데	-8376
▁사람들하고	-8377
▁생각하시나	-8378
▁실천하기가	-8379
▁입원했는데	-8380
▁느껴지는군요	-8381
▁말씀이시군요	-8382
▁생각하시는지	-8383
▁화나셨겠어요	-8384
▁막막하시겠어요	-8385
▁혼란스럽겠어요	-8386
▁욱	-8387
▁케	-8388
▁펑	-8389
나는	-8390
드는	-8391
사로	-8392
서는	-8393
어머	-8394
었고	-8395
이로	-8396
줄까	-8397
책임	-8398
화에	-8399
▁교우	-8400
▁구입	-8401
▁그림	-8402
▁끝났	-8403
▁날에	-8404
▁놀지	-8405
▁놓이	-8406
▁말아	-8407
▁맡아	-8408
▁모욕	-8409
▁방송	-8410
▁버겁	-8411
▁병도	-8412
▁보일	-8413
▁보증	-8414
▁불이	-8415
▁붙어	-8416
▁살던	-8417
▁수다	-8418
▁안마	-8419
▁알바	-8420
▁언행	-8421
▁온갖	-8422
▁완화	-8423
▁유튜	-8424
▁이뤄	-8425
▁이벤	-8426
▁잘만	-8427
▁정답	-8428
▁줄고	-8429
▁질병	-8430
▁쫓겨	-8431
▁채로	-8432
▁콘서	-8433
▁합의	-8434
▁해요	-8435
▁힘도	-8436
가에서	-8437
느라고	-8438
소리를	-8439
스트를	-8440
시기를	-8441
았나요	-8442
테이션	-8443
하냐고	-8444
▁거리가	-8445
▁경제가	-8446
▁금액이	-8447
▁기억도	-8448
▁나올까	-8449
▁날인데	-8450
▁노년을	-8451
▁누명을	-8452
▁드나요	-8453
▁드려야	-8454
▁든든한	-8455
▁따님과	-8456
▁떠나는	-8457
▁많으니	-8458
▁망해서	-8459
▁믿어주	-8460
▁보내서	-8461
▁보상을	-8462
▁봤다고	-8463
▁사라져	-8464
▁생활로	-8465
▁시골에	-8466
▁실천이	-8467
▁않거든	-8468
▁없어도	-8469
▁욕심이	-8470
▁용서를	-8471
▁주변인	-8472
▁중학생	-8473
▁즐기고	-8474
▁지난날	-8475
▁지내지	-8476
▁직원의	-8477
▁집안에	-8478
▁집중도	-8479
▁쪽으로	-8480
▁책임지	-8481
▁최고의	-8482
▁축하를	-8483
▁폐암에	-8484
▁풀어야	-8485
▁하냐고	-8486
▁학교로	-8487
▁함께할	-8488
▁갑작스레	-8489
▁결혼생활	-8490
▁그만두면	-8491
▁나가라고	-8492
▁나빠졌어	-8493
▁느껴지네	-8494
▁다가오니	-8495
▁대출금을	-8496
▁동기들과	-8497
▁동호회에	-8498
▁모르겠다	-8499
▁바라보고	-8500
▁보이네요	-8501
▁보이는데	-8502
▁불안함이	-8503
▁시작해야	-8504
▁식구들이	-8505
▁실수할까	-8506
▁아침마다	-8507
▁아침부터	-8508
▁얘기해야	-8509
▁연락하고	-8510
▁이러니까	-8511
▁있겠어요	-8512
▁죄책감에	-8513
▁집안일도	-8514
▁참석하지	-8515
▁친구들에	-8516
▁퇴직으로	-8517
▁팀원들과	-8518
▁피곤해서	-8519
▁필요해서	-8520
▁노력하는데	-8521
▁받으셨다니	-8522
▁방법으로는	-8523
▁부끄러움을	-8524
▁어떠셨어요	-8525
▁있으신지요	-8526
▁있을거예요	-8527
▁정년퇴직을	-8528
▁여자친구분이	-8529
▁편안하시군요	-8530
▁프로젝트에서	-8531
▁쓸쓸하시겠어요	-8532
▁광	-8533
▁브	-8534
▁석	-8535
▁쑥	-8536
▁층	-8537
길에	-8538
딸이	-8539
때는	-8540
스레	-8541
없게	-8542
오지	-8543
자랑	-8544
코올	-8545
하단	-8546
▁걔는	-8547
▁겪어	-8548
▁견뎌	-8549
▁계단	-8550
▁고령	-8551
▁기관	-8552
▁날까	-8553
▁내기	-8554
▁내색	-8555
▁놓여	-8556
▁눈빛	-8557
▁다해	-8558
▁데다	-8559
▁되실	-8560
▁마디	-8561
▁많네	-8562
▁무산	-8563
▁변경	-8564
▁부유	-8565
▁산후	-8566
▁상을	-8567
▁성별	-8568
▁속에	-8569
▁썼어	-8570
▁쏟아	-8571
▁아저	-8572
▁열어	-8573
▁옳은	-8574
▁웃고	-8575
▁이식	-8576
▁잘되	-8577
▁주도	-8578
▁줄을	-8579
▁직종	-8580
▁쫓아	-8581
▁참지	-8582
▁틀린	-8583
▁평균	-8584
▁풍족	-8585
▁한순	-8586
▁효도	-8587
고사를	-8588
랐는데	-8589
렸다고	-8590
보군요	-8591
분에게	-8592
았다니	-8593
자들이	-8594
졌다는	-8595
중에도	-8596
하시기	-8597
했었어	-8598
▁가정불	-8599
▁간단한	-8600
▁감당할	-8601
▁갚아야	-8602
▁거겠지	-8603
▁꾸지람	-8604
▁끝났어	-8605
▁노인을	-8606
▁당신이	-8607
▁대처를	-8608
▁동창이	-8609
▁됐군요	-8610
▁들어갔	-8611
▁딸이랑	-8612
▁만들기	-8613
▁문제도	-8614
▁뭐부터	-8615
▁방안은	-8616
▁벌이가	-8617
▁별것도	-8618
▁복잡해	-8619
▁산부인	-8620
▁수익이	-8621
▁시간만	-8622
▁시절에	-8623
▁써주는	-8624
▁썼는데	-8625
▁아쉬운	-8626
▁아이돌	-8627
▁알려줄	-8628
▁의심을	-8629
▁이력서	-8630
▁이해는	-8631
▁이혼에	-8632
▁저녁을	-8633
▁전하고	-8634
▁제주도	-8635
▁죽어야	-8636
▁중간에	-8637
▁줬으면	-8638
▁지적을	-8639
▁추억이	-8640
▁취업난	-8641
▁했어야	-8642
▁행복할	-8643
▁허락을	-8644
지는군요	-8645
▁가라앉히	-8646
▁가정형편	-8647
▁같더라고	-8648
▁걸렸다고	-8649
▁기대하고	-8650
▁나가는데	-8651
▁내셨군요	-8652
▁다가오는	-8653
▁다가와서	-8654
▁대화하고	-8655
▁돌아다니	-8656
▁동기들은	-8657
▁두려우신	-8658
▁멀어져서	-8659
▁물어보고	-8660
▁반대하셔	-8661
▁반대해서	-8662
▁받으면서	-8663
▁병간호를	-8664
▁분들에게	-8665
▁사람과의	-8666
▁사회생활	-8667
▁새엄마가	-8668
▁선배에게	-8669
▁식당에서	-8670
▁신뢰하는	-8671
▁싫어해서	-8672
▁아버님이	-8673
▁아주머니	-8674
▁않는다는	-8675
▁요구하는	-8676
▁우울감을	-8677
▁유대감이	-8678
▁의지하고	-8679
▁일어나는	-8680
▁자책감이	-8681
▁퇴직하게	-8682
▁해봤는데	-8683
▁허무하고	-8684
▁회의감을	-8685
▁힘들어도	-8686
▁따돌림으로	-8687
▁성가시군요	-8688
▁성적으로는	-8689
▁실망스럽고	-8690
▁안타까워요	-8691
▁좋아하시는	-8692
▁직장생활을	-8693
▁하시던가요	-8694
▁학교폭력에	-8695
▁화장실에서	-8696
▁건강검진에서	-8697
▁많으시겠네요	-8698
▁불편하신가요	-8699
▁쓰이시겠어요	-8700
▁여기시는군요	-8701
▁좋으시겠네요	-8702
▁힘들어하시는	-8703
▁당황하셨겠네요	-8704
▁속상하셨겠군요	-8705
▁충격받으셨군요	-8706
▁굶	-8707
▁싱	-8708
▁웬	-8709
가에	-8710
놓을	-8711
단에	-8712
뚝뚝	-8713
르기	-8714
셔도	-8715
었네	-8716
의로	-8717
있지	-8718
자야	-8719
줘도	-8720
처를	-8721
치면	-8722
▁거슬	-8723
▁고작	-8724
▁그분	-8725
▁기준	-8726
▁나실	-8727
▁날씨	-8728
▁낳았	-8729
▁넘겨	-8730
▁녹내	-8731
▁달째	-8732
▁돌이	-8733
▁드리	-8734
▁뚜렷	-8735
▁면이	-8736
▁몰려	-8737
▁무례	-8738
▁바를	-8739
▁반겨	-8740
▁보장	-8741
▁빌릴	-8742
▁성치	-8743
▁센터	-8744
▁소아	-8745
▁술도	-8746
▁숨기	-8747
▁신장	-8748
▁안해	-8749
▁업체	-8750
▁옮겨	-8751
▁이룰	-8752
▁입은	-8753
▁잘살	-8754
▁젊어	-8755
▁주택	-8756
▁직속	-8757
▁진료	-8758
▁타박	-8759
▁하객	-8760
▁하소	-8761
▁한시	-8762
근경색	-8763
았으면	-8764
없다는	-8765
적이지	-8766
했다면	-8767
▁가지는	-8768
▁거기서	-8769
▁거기에	-8770
▁결과로	-8771
▁고통을	-8772
▁그때는	-8773
▁근심이	-8774
▁나누고	-8775
▁나아서	-8776
▁내일도	-8777
▁누구를	-8778
▁다가와	-8779
▁달라는	-8780
▁돌보고	-8781
▁되겠지	-8782
▁따돌려	-8783
▁때에는	-8784
▁무의미	-8785
▁믿어요	-8786
▁받으실	-8787
▁배우는	-8788
▁보일까	-8789
▁부서가	-8790
▁불우한	-8791
▁사주고	-8792
▁성공한	-8793
▁시장이	-8794
▁아들도	-8795
▁알아듣	-8796
▁애한테	-8797
▁언니랑	-8798
▁엄마께	-8799
▁여의치	-8800
▁오해로	-8801
▁원래는	-8802
▁원인을	-8803
▁유산을	-8804
▁이것도	-8805
▁이번이	-8806
▁인정해	-8807
▁있더라	-8808
▁중년이	-8809
▁질병이	-8810
▁퇴직한	-8811
▁풀려서	-8812
▁학과에	-8813
적이어서	-8814
▁계시는데	-8815
▁계시다니	-8816
▁고생하고	-8817
▁나가기가	-8818
▁노년기에	-8819
▁답답해서	-8820
▁들어주는	-8821
▁떨어지니	-8822
▁모두에게	-8823
▁미워하는	-8824
▁바쁘다는	-8825
▁방식으로	-8826
▁배우자와	-8827
▁사달라고	-8828
▁생겼다고	-8829
▁소외되는	-8830
▁수술비가	-8831
▁싶으신데	-8832
▁없었으면	-8833
▁연락하지	-8834
▁이전에는	-8835
▁일어나서	-8836
▁자유롭게	-8837
▁죽었는데	-8838
▁준비하지	-8839
▁중요하게	-8840
▁집주인이	-8841
▁짜증이나	-8842
▁출근하는	-8843
▁편안하고	-8844
▁화해하고	-8845
하였겠어요	-8846
▁느껴지시나	-8847
▁떨어지셔서	-8848
▁사라질까요	-8849
▁신체장애로	-8850
▁싸우셨나요	-8851
▁하늘나라로	-8852
▁해외여행을	-8853
▁회사에서도	-8854
▁놀라셨겠네요	-8855
▁불안하셨군요	-8856
▁비통하시군요	-8857
▁닦	-8858
▁콜	-8859
▁홧	-8860
금은	-8861
다지	-8862
보지	-8863
시대	-8864
신대	-8865
있을	-8866
침에	-8867
토바	-8868
통에	-8869
한대	-8870
▁갖다	-8871
▁경영	-8872
▁괜한	-8873
▁기초	-8874
▁끼니	-8875
▁나머	-8876
▁낯설	-8877
▁다그	-8878
▁다섯	-8879
▁달성	-8880
▁대가	-8881
▁대할	-8882
▁돈독	-8883
▁뒷담	-8884
▁말라	-8885
▁맞게	-8886
▁비가	-8887
▁빠지	-8888
▁상승	-8889
▁서서	-8890
▁시누	-8891
▁쌀쌀	-8892
▁약값	-8893
▁위기	-8894
▁의도	-8895
▁인원	-8896
▁입장	-8897
▁자서	-8898
▁정해	-8899
▁주니	-8900
▁퇴학	-8901
▁편애	-8902
▁평상	-8903
▁피웠	-8904
▁하긴	-8905
▁호흡	-8906
▁혼을	-8907
▁휴직	-8908
집에서	-8909
한테도	-8910
▁가게에	-8911
▁가깝게	-8912
▁거였어	-8913
▁걱정과	-8914
▁걸어도	-8915
▁끼치는	-8916
▁남들의	-8917
▁노년기	-8918
▁노년의	-8919
▁노력은	-8920
▁누나의	-8921
▁늙으면	-8922
▁당하니	-8923
▁대장암	-8924
▁듣지도	-8925
▁딸과의	-8926
▁마셔서	-8927
▁못나서	-8928
▁못되게	-8929
▁무책임	-8930
▁보탬이	-8931
▁보험에	-8932
▁부모를	-8933
▁부인의	-8934
▁빠지고	-8935
▁사람만	-8936
▁사표를	-8937
▁생각되	-8938
▁생기네	-8939
▁세우고	-8940
▁소개해	-8941
▁솔직한	-8942
▁수업에	-8943
▁숨기는	-8944
▁스펙이	-8945
▁시비를	-8946
▁시어머	-8947
▁신세가	-8948
▁싫다는	-8949
▁쓰여서	-8950
▁아까워	-8951
▁안되고	-8952
▁알려준	-8953
▁알코올	-8954
▁얘기는	-8955
▁업무는	-8956
▁오토바	-8957
▁자기는	-8958
▁장래희	-8959
▁재미도	-8960
▁저축해	-8961
▁적응이	-8962
▁조별과	-8963
▁좋은지	-8964
▁줄어든	-8965
▁즐겁지	-8966
▁참으로	-8967
▁출장을	-8968
▁출퇴근	-8969
▁충분한	-8970
▁취미가	-8971
▁취해서	-8972
▁치료할	-8973
▁치매로	-8974
▁팀원들	-8975
▁폭행을	-8976
▁피부가	-8977
▁하나가	-8978
▁하시나	-8979
▁현실과	-8980
▁홧김에	-8981
▁회의를	-8982
되었다고	-8983
하신다니	-8984
▁가족과의	-8985
▁것인가요	-8986
▁결혼하지	-8987
▁계획하고	-8988
▁고맙다고	-8989
▁공부해도	-8990
▁괴로움을	-8991
▁극복하고	-8992
▁남편하고	-8993
▁넘어져서	-8994
▁늙어가는	-8995
▁동료들은	-8996
▁되었는지	-8997
▁들어가기	-8998
▁많겠어요	-8999
▁멀리하는	-9000
▁면접관이	-9001
▁무너지는	-9002
▁문제인지	-9003
▁배우자가	-9004
▁보여주고	-9005
▁부족하고	-9006
▁비교되어	-9007
▁비교하는	-9008
▁사춘기가	-9009
▁성격이라	-9010
▁슬퍼하고	-9011
▁심근경색	-9012
▁알려주지	-9013
▁어려워져	-9014
▁없었거든	-9015
▁우울해져	-9016
▁우유부단	-9017
▁운동으로	-9018
▁월급으로	-9019
▁자녀들의	-9020
▁자전거를	-9021
▁정리해고	-9022
▁정신장애	-9023
▁주말에도	-9024
▁친해지는	-9025
▁혼자서는	-9026
▁후회된다	-9027
▁같으신가요	-9028
▁그러시는지	-9029
▁말씀하셔서	-9030
▁무엇이라고	-9031
▁할머니께서	-9032
▁해봐야겠어	-9033
▁해소하려면	-9034
▁담임선생님이	-9035
▁많으셨겠어요	-9036
▁보이시는군요	-9037
▁좋아지셨군요	-9038
▁긴장되시는군요	-9039
▁생각해보셨나요	-9040
▁속상하셨겠네요	-9041
▁갇	-9042
▁룸	-9043
▁탔	-9044
가게	-9045
견을	-9046
돼요	-9047
라인	-9048
롭고	-9049
리어	-9050
바로	-9051
산을	-9052
요일	-9053
우신	-9054
위권	-9055
정에	-9056
한다	-9057
▁강한	-9058
▁계셔	-9059
▁깨닫	-9060
▁넘은	-9061
▁놀려	-9062
▁단골	-9063
▁더듬	-9064
▁동갑	-9065
▁딸도	-9066
▁때의	-9067
▁룸메	-9068
▁말썽	-9069
▁먹기	-9070
▁못났	-9071
▁버릴	-9072
▁병든	-9073
▁분담	-9074
▁빵을	-9075
▁사야	-9076
▁살까	-9077
▁소극	-9078
▁수면	-9079
▁식이	-9080
▁신기	-9081
▁암담	-9082
▁연속	-9083
▁옷차	-9084
▁원인	-9085
▁입을	-9086
▁주시	-9087
▁주인	-9088
▁지날	-9089
▁차례	-9090
▁처지	-9091
▁첫째	-9092
▁청첩	-9093
▁출장	-9094
▁취할	-9095
▁칠십	-9096
▁침침	-9097
▁펑펑	-9098
▁하든	-9099
▁혼수	-9100
▁힘듦	-9101
겠냐고	-9102
다보니	-9103
봤더니	-9104
우신가	-9105
이네요	-9106
중이야	-9107
직으로	-9108
했으니	-9109
▁거절을	-9110
▁걸릴까	-9111
▁경력이	-9112
▁계시나	-9113
▁고민도	-9114
▁기력이	-9115
▁나누는	-9116
▁노트북	-9117
▁다쳤어	-9118
▁도와줬	-9119
▁만나러	-9120
▁맞춰서	-9121
▁멋대로	-9122
▁모으지	-9123
▁무뚝뚝	-9124
▁물려줄	-9125
▁뭐든지	-9126
▁발령이	-9127
▁배워야	-9128
▁부서에	-9129
▁사랑해	-9130
▁손주가	-9131
▁손주들	-9132
▁승진에	-9133
▁시키고	-9134
▁얻어서	-9135
▁없다면	-9136
▁역할이	-9137
▁연습을	-9138
▁예민한	-9139
▁외롭지	-9140
▁요구를	-9141
▁월급은	-9142
▁은퇴한	-9143
▁이혼이	-9144
▁인간이	-9145
▁자기를	-9146
▁재취업	-9147
▁체육대	-9148
▁쳤는데	-9149
▁충돌이	-9150
▁탓으로	-9151
▁피아노	-9152
▁피우고	-9153
▁피하게	-9154
▁한숨만	-9155
▁했으니	-9156
▁황당해	-9157
▁힘든가	-9158
스러워서	-9159
▁같았는데	-9160
▁걱정되어	-9161
▁걱정할까	-9162
▁그만뒀어	-9163
▁나시나요	-9164
▁나아지실	-9165
▁나오는데	-9166
▁내버렸어	-9167
▁느끼시고	-9168
▁두렵기도	-9169
▁들어주고	-9170
▁들으니까	-9171
▁룸메이트	-9172
▁마찬가지	-9173
▁먹으려고	-9174
▁모르는데	-9175
▁무가치한	-9176
▁무리해서	-9177
▁병원에는	-9178
▁부부관계	-9179
▁불편하니	-9180
▁사춘기라	-9181
▁생각하며	-9182
▁생겼나요	-9183
▁소외감이	-9184
▁시험공부	-9185
▁실수해서	-9186
▁않겠어요	-9187
▁않으면서	-9188
▁어땠나요	-9189
▁운동하는	-9190
▁일이라고	-9191
▁자금으로	-9192
▁전환하기	-9193
▁지인에게	-9194
▁직원들은	-9195
▁컨디션이	-9196
▁편인가요	-9197
▁해줬으면	-9198
▁결혼하자고	-9199
▁고등학교를	-9200
▁기분이군요	-9201
▁나쁘셨군요	-9202
▁당황스러웠	-9203
▁돌아가시고	-9204
▁드셨겠어요	-9205
▁며느리에게	-9206
▁모르겠군요	-9207
▁병원에서는	-9208
▁사용자님과	-9209
▁생기셨나요	-9210
▁신체적으로	-9211
▁알려주세요	-9212
▁자녀분들을	-9213
▁정신장애가	-9214
▁겪으시는군요	-9215
▁귀찮으시군요	-9216
▁나쁘시겠어요	-9217
▁당혹스러웠어	-9218
▁속상하겠네요	-9219
▁억울하셨군요	-9220
▁좋으시겠군요	-9221
▁서운하셨겠어요	-9222
▁혼란스러우셨군요	-9223
고도	-9224
교육	-9225
레젠	-9226
무가	-9227
술을	-9228
오고	-9229
전형	-9230
통을	-9231
하라	-9232
▁가려	-9233
▁감축	-9234
▁걸고	-9235
▁것들	-9236
▁겨워	-9237
▁계시	-9238
▁공모	-9239
▁그땐	-9240
▁금융	-9241
▁깊게	-9242
▁끝날	-9243
▁끝낼	-9244
▁낳아	-9245
▁내리	-9246
▁늘고	-9247
▁대견	-9248
▁데서	-9249
▁동업	-9250
▁들켰	-9251
▁마신	-9252
▁많다	-9253
▁망친	-9254
▁멋져	-9255
▁명문	-9256
▁명확	-9257
▁미국	-9258
▁밀린	-9259
▁바빴	-9260
▁배로	-9261
▁뻔뻔	-9262
▁서툴	-9263
▁수습	-9264
▁아래	-9265
▁연유	-9266
▁유전	-9267
▁의료	-9268
▁잊지	-9269
▁잘릴	-9270
▁잠적	-9271
▁접어	-9272
▁죄를	-9273
▁줄도	-9274
▁지겨	-9275
▁지급	-9276
▁차지	-9277
▁참담	-9278
▁천만	-9279
▁치열	-9280
▁치유	-9281
▁캠핑	-9282
▁택배	-9283
▁포함	-9284
▁학비	-9285
▁혈당	-9286
관리를	-9287
는다는	-9288
시지를	-9289
하기를	-9290
하자는	-9291
▁가게가	-9292
▁거울을	-9293
▁꾸중을	-9294
▁나더러	-9295
▁나밖에	-9296
▁날렸어	-9297
▁낳아서	-9298
▁눈치도	-9299
▁다녀왔	-9300
▁다녔어	-9301
▁다니며	-9302
▁동료를	-9303
▁둘이서	-9304
▁멀어져	-9305
▁물건이	-9306
▁미래는	-9307
▁밀려서	-9308
▁바꾸고	-9309
▁바쁘고	-9310
▁밤늦게	-9311
▁밤마다	-9312
▁방해가	-9313
▁배워서	-9314
▁복지가	-9315
▁부부싸	-9316
▁사랑이	-9317
▁산다는	-9318
▁살아도	-9319
▁생기신	-9320
▁선고를	-9321
▁세상은	-9322
▁소화가	-9323
▁신랑이	-9324
▁신청을	-9325
▁실망을	-9326
▁싶은지	-9327
▁싶지도	-9328
▁써주지	-9329
▁어린데	-9330
▁어울려	-9331
▁옆자리	-9332
▁우리를	-9333
▁원서를	-9334
▁일에서	-9335
▁입어서	-9336
▁자녀의	-9337
▁장사를	-9338
▁장애인	-9339
▁적응할	-9340
▁전염병	-9341
▁정확히	-9342
▁지금이	-9343
▁지인의	-9344
▁질환을	-9345
▁찾아올	-9346
▁챙기고	-9347
▁출산이	-9348
▁친하지	-9349
▁콘서트	-9350
▁크신가	-9351
▁퇴원을	-9352
▁트집을	-9353
▁팀원이	-9354
▁프레젠	-9355
▁하루도	-9356
▁해볼까	-9357
▁해소될	-9358
▁행복을	-9359
▁화해할	-9360
▁확인해	-9361
되었군요	-9362
하시니까	-9363
하자마자	-9364
▁가족한테	-9365
▁거로군요	-9366
▁공부하기	-9367
▁기분이라	-9368
▁대회에서	-9369
▁동네에서	-9370
▁드셨어요	-9371
▁만들어서	-9372
▁말씀해보	-9373
▁멀어지고	-9374
▁반성하고	-9375
▁보냈는데	-9376
▁부러워서	-9377
▁사람보다	-9378
▁생각까지	-9379
▁생각처럼	-9380
▁생기셔서	-9381
▁선택해야	-9382
▁수술해야	-9383
▁실망하신	-9384
▁아니었나	-9385
▁애인에게	-9386
▁연락해서	-9387
▁집에서는	-9388
▁취업했어	-9389
▁큰아들이	-9390
▁퇴사하고	-9391
▁행복하지	-9392
▁힘들다는	-9393
▁공부하는데	-9394
▁느껴지네요	-9395
▁받았겠어요	-9396
▁생각하는지	-9397
▁생각하시게	-9398
▁안정적으로	-9399
▁얘기했는데	-9400
▁잘못이라고	-9401
▁최선일까요	-9402
▁크시겠군요	-9403
▁학교생활이	-9404
▁합병증으로	-9405
▁해결하려고	-9406
▁힘들어졌어	-9407
▁남자친구분이	-9408
▁변화시키려면	-9409
▁심하시겠어요	-9410
▁프레젠테이션	-9411
▁벽	-9412
▁째	-9413
▁쳤	-9414
것이	-9415
견례	-9416
등을	-9417
떨어	-9418
보험	-9419
수인	-9420
않아	-9421
엔에	-9422
자의	-9423
절이	-9424
종을	-9425
주기	-9426
중독	-9427
지런	-9428
하겠	-9429
▁거란	-9430
▁건네	-9431
▁걸을	-9432
▁과로	-9433
▁그가	-9434
▁근육	-9435
▁나중	-9436
▁날은	-9437
▁남이	-9438
▁넘기	-9439
▁단짝	-9440
▁돌봄	-9441
▁둘러	-9442
▁들리	-9443
▁때린	-9444
▁똑똑	-9445
▁몸매	-9446
▁미련	-9447
▁미비	-9448
▁버텨	-9449
▁별일	-9450
▁병은	-9451
▁성취	-9452
▁수월	-9453
▁쉬지	-9454
▁식은	-9455
▁앞을	-9456
▁애는	-9457
▁야단	-9458
▁얻고	-9459
▁엄두	-9460
▁에이	-9461
▁오후	-9462
▁와도	-9463
▁이가	-9464
▁이른	-9465
▁인공	-9466
▁장사	-9467
▁중반	-9468
▁짓고	-9469
▁챙겼	-9470
▁토익	-9471
▁파악	-9472
▁팔이	-9473
▁퍼트	-9474
▁하도	-9475
▁회장	-9476
▁흔들	-9477
기라도	-9478
보다도	-9479
부터는	-9480
스피싱	-9481
았다는	-9482
았더니	-9483
었으니	-9484
자라고	-9485
자에게	-9486
▁가다가	-9487
▁가볍게	-9488
▁가수가	-9489
▁감사의	-9490
▁강제로	-9491
▁것인데	-9492
▁그니까	-9493
▁그러신	-9494
▁나빠져	-9495
▁나쁘지	-9496
▁너무한	-9497
▁넘어서	-9498
▁데다가	-9499
▁따님을	-9500
▁딸아이	-9501
▁때로는	-9502
▁많아지	-9503
▁많은가	-9504
▁먹어가	-9505
▁모습만	-9506
▁모시고	-9507
▁못살게	-9508
▁보세요	-9509
▁부양할	-9510
▁부지런	-9511
▁빠져나	-9512
▁빼놓고	-9513
▁사이도	-9514
▁상견례	-9515
▁상대를	-9516
▁상상도	-9517
▁습관을	-9518
▁신뢰할	-9519
▁쓰러진	-9520
▁씨에게	-9521
▁아닐지	-9522
▁아침을	-9523
▁않겠지	-9524
▁알리고	-9525
▁알지도	-9526
▁야근이	-9527
▁여자와	-9528
▁연세가	-9529
▁외식을	-9530
▁운동은	-9531
▁운동할	-9532
▁은행에	-9533
▁의사는	-9534
▁의사를	-9535
▁일어났	-9536
▁일하게	-9537
▁있자니	-9538
▁자식과	-9539
▁재정에	-9540
▁전공과	-9541
▁정도가	-9542
▁정신과	-9543
▁정해야	-9544
▁정해진	-9545
▁제자리	-9546
▁좋겠다	-9547
▁좋아할	-9548
▁지금과	-9549
▁지지가	-9550
▁차별을	-9551
▁찾아볼	-9552
▁추억을	-9553
▁취직할	-9554
▁치료는	-9555
▁태도로	-9556
▁통화를	-9557
▁폭력에	-9558
▁피웠어	-9559
▁하실까	-9560
▁해결을	-9561
▁해주면	-9562
▁현실을	-9563
▁간섭해서	-9564
▁감사하는	-9565
▁강아지가	-9566
▁귀찮아서	-9567
▁낙담했어	-9568
▁노력해야	-9569
▁다니기가	-9570
▁다행이지	-9571
▁대처하실	-9572
▁돌아가고	-9573
▁동생분이	-9574
▁디스크가	-9575
▁만나자고	-9576
▁받았다니	-9577
▁배신감도	-9578
▁보너스를	-9579
▁빈자리가	-9580
▁사별하고	-9581
▁살아갈지	-9582
▁상대방을	-9583
▁새아버지	-9584
▁생각할지	-9585
▁생각해야	-9586
▁아니잖아	-9587
▁악화되어	-9588
▁안도감이	-9589
▁않았나요	-9590
▁알아주는	-9591
▁애들에게	-9592
▁에스엔에	-9593
▁여유로워	-9594
▁움직이지	-9595
▁있으신지	-9596
▁잘해주고	-9597
▁창피했어	-9598
▁친구분들	-9599
▁코로나에	-9600
▁편해졌어	-9601
▁하고싶은	-9602
▁하나뿐인	-9603
▁헤어지게	-9604
▁현실적인	-9605
▁힘드세요	-9606
▁힘들었던	-9607
▁것만으로도	-9608
▁그렇게까지	-9609
▁보이는군요	-9610
▁보이스피싱	-9611
▁아프겠어요	-9612
▁어려우신가	-9613
▁우유부단한	-9614
▁잘못했다고	-9615
▁편찮으셔서	-9616
▁하시겠어요	-9617
▁모르시겠군요	-9618
▁상태이시군요	-9619
▁허탈하시군요	-9620
▁곤란하시겠어요	-9621
▁아쉬우시겠어요	-9622
▁떳	-9623
▁얹	-9624
▁펴	-9625
▁횡	-9626
가짐	-9627
둘이	-9628
듯한	-9629
빨리	-9630
사한	-9631
시킨	-9632
았지	-9633
없을	-9634
와도	-9635
웨딩	-9636
이상	-9637
점에	-9638
주면	-9639
토피	-9640
하군	-9641
했다	-9642
희롱	-9643
▁가을	-9644
▁겨울	-9645
▁계실	-9646
▁내시	-9647
▁느려	-9648
▁도우	-9649
▁동의	-9650
▁되질	-9651
▁뒤통	-9652
▁들이	-9653
▁떠맡	-9654
▁떳떳	-9655
▁문득	-9656
▁미운	-9657
▁보실	-9658
▁빌리	-9659
▁샀어	-9660
▁선호	-9661
▁소화	-9662
▁씨는	-9663
▁아름	-9664
▁안될	-9665
▁않던	-9666
▁앞둔	-9667
▁애매	-9668
▁양가	-9669
▁열고	-9670
▁유부	-9671
▁응급	-9672
▁잡을	-9673
▁제공	-9674
▁조율	-9675
▁죄의	-9676
▁주민	-9677
▁주의	-9678
▁참아	-9679
▁채워	-9680
▁채팅	-9681
▁틀림	-9682
▁티를	-9683
▁하래	-9684
▁한창	-9685
▁헛소	-9686
가면서	-9687
느냐고	-9688
렸군요	-9689
리셔서	-9690
보니까	-9691
셨다고	-9692
시켜서	-9693
어나갈	-9694
었다가	-9695
으로써	-9696
자리를	-9697
하시던	-9698
학생이	-9699
▁거에요	-9700
▁결정에	-9701
▁고맙지	-9702
▁그녀가	-9703
▁그럼요	-9704
▁긴장되	-9705
▁나이만	-9706
▁느긋해	-9707
▁늙으니	-9708
▁단절된	-9709
▁대출이	-9710
▁대학은	-9711
▁동네에	-9712
▁동생만	-9713
▁되겠어	-9714
▁되어야	-9715
▁들어올	-9716
▁따돌린	-9717
▁떠나가	-9718
▁마땅한	-9719
▁만족해	-9720
▁말라는	-9721
▁맞을까	-9722
▁맡아서	-9723
▁며칠째	-9724
▁모자란	-9725
▁바라던	-9726
▁반장이	-9727
▁별다른	-9728
▁병원은	-9729
▁보라고	-9730
▁보살피	-9731
▁부리는	-9732
▁부인을	-9733
▁분들께	-9734
▁살갑게	-9735
▁살림을	-9736
▁살았던	-9737
▁살자고	-9738
▁상담해	-9739
▁생겼을	-9740
▁선물이	-9741
▁성실히	-9742
▁성희롱	-9743
▁속상했	-9744
▁수능을	-9745
▁쌀쌀맞	-9746
▁아끼고	-9747
▁아토피	-9748
▁않았나	-9749
▁않으셔	-9750
▁애인을	-9751
▁어른이	-9752
▁없어지	-9753
▁여태껏	-9754
▁영어를	-9755
▁영원히	-9756
▁오는데	-9757
▁와중에	-9758
▁유명한	-9759
▁음주운	-9760
▁이어가	-9761
▁인사도	-9762
▁일일이	-9763
▁임신한	-9764
▁자식은	-9765
▁작아서	-9766
▁재산도	-9767
▁적절한	-9768
▁제안을	-9769
▁조급한	-9770
▁주었어	-9771
▁진료를	-9772
▁징계를	-9773
▁찾기가	-9774
▁찾아온	-9775
▁체력도	-9776
▁친절한	-9777
▁편해질	-9778
▁폭언을	-9779
▁필요로	-9780
▁하더군	-9781
▁하루아	-9782
▁하소연	-9783
▁하시네	-9784
▁한시름	-9785
▁해야만	-9786
▁허무한	-9787
▁황당한	-9788
▁회사와	-9789
▁회의가	-9790
▁후회해	-9791
▁힘들까	-9792
되는군요	-9793
되었다니	-9794
어버렸어	-9795
으셨나요	-9796
적이라고	-9797
▁고마웠어	-9798
▁그러게요	-9799
▁기본적인	-9800
▁나아지는	-9801
▁나에게도	-9802
▁다행히도	-9803
▁독립해서	-9804
▁들으려고	-9805
▁따돌림이	-9806
▁마음가짐	-9807
▁말하니까	-9808
▁망설여져	-9809
▁못하면서	-9810
▁반복해서	-9811
▁보이셔서	-9812
▁보인다고	-9813
▁분위기를	-9814
▁불편함이	-9815
▁불행하게	-9816
▁새어머니	-9817
▁소홀했던	-9818
▁시작하고	-9819
▁시작하는	-9820
▁실패하고	-9821
▁싫어졌어	-9822
▁않는다니	-9823
▁얘기하면	-9824
▁연애하는	-9825
▁우리나라	-9826
▁움직이는	-9827
▁이야기에	-9828
▁이해해주	-9829
▁이혼까지	-9830
▁일이군요	-9831
▁있으셨던	-9832
▁잘못이지	-9833
▁재미없어	-9834
▁정신적인	-9835
▁지병으로	-9836
▁집중하지	-9837
▁친절하게	-9838
▁크셨군요	-9839
▁퇴근해서	-9840
▁하셨는지	-9841
▁행복하고	-9842
▁환경에서	-9843
▁휴대폰을	-9844
▁힘들었을	-9845
▁결혼생활을	-9846
▁느껴지시는	-9847
▁다투셨군요	-9848
▁되어버렸어	-9849
▁마음뿐이야	-9850
▁방어적으로	-9851
▁슬펐겠어요	-9852
▁이야기하면	-9853
▁이야기해서	-9854
▁장례식장에	-9855
▁지원했는데	-9856
▁취업하기가	-9857
▁친구분께서	-9858
▁텔레비전을	-9859
▁편안해졌어	-9860
▁학교폭력이	-9861
▁화나셨군요	-9862
▁느껴지시나요	-9863
▁느끼시겠어요	-9864
▁무관심하셔서	-9865
▁불만이시군요	-9866
▁안타까우시군요	-9867
▁떡	-9868
▁셋	-9869
▁슈	-9870
▁찔	-9871
▁튼	-9872
가봐	-9873
가정	-9874
겹고	-9875
급을	-9876
느니	-9877
보기	-9878
보를	-9879
실로	-9880
아냥	-9881
았나	-9882
오던	-9883
저분	-9884
제에	-9885
줄지	-9886
줬던	-9887
증도	-9888
▁가니	-9889
▁간경	-9890
▁게을	-9891
▁겪게	-9892
▁공들	-9893
▁공채	-9894
▁과를	-9895
▁그에	-9896
▁깎아	-9897
▁꼼짝	-9898
▁꿈은	-9899
▁낙이	-9900
▁남게	-9901
▁높이	-9902
▁누락	-9903
▁다쳐	-9904
▁당당	-9905
▁대회	-9906
▁막혀	-9907
▁면담	-9908
▁못된	-9909
▁번거	-9910
▁보채	-9911
▁부작	-9912
▁부친	-9913
▁비정	-9914
▁사유	-9915
▁서비	-9916
▁성형	-9917
▁슈퍼	-9918
▁시장	-9919
▁쓰실	-9920
▁아깝	-9921
▁안된	-9922
▁안일	-9923
▁약해	-9924
▁어쩜	-9925
▁얻게	-9926
▁얻지	-9927
▁열이	-9928
▁영영	-9929
▁옮길	-9930
▁웃는	-9931
▁위에	-9932
▁유난	-9933
▁육체	-9934
▁입덧	-9935
▁잘됐	-9936
▁장모	-9937
▁차마	-9938
▁체험	-9939
▁쳤어	-9940
▁층간	-9941
▁투정	-9942
▁폐렴	-9943
▁피워	-9944
▁학과	-9945
▁학점	-9946
▁해드	-9947
▁형의	-9948
가는데	-9949
거리를	-9950
렸으면	-9951
마비로	-9952
만큼은	-9953
으로만	-9954
졌다니	-9955
치료를	-9956
하지는	-9957
한다니	-9958
▁갔으면	-9959
▁거라서	-9960
▁것까지	-9961
▁결혼과	-9962
▁계신가	-9963
▁공부해	-9964
▁과정이	-9965
▁그걸로	-9966
▁그것을	-9967
▁꺼려져	-9968
▁끔찍해	-9969
▁끝내고	-9970
▁나오니	-9971
▁날짜가	-9972
▁너무해	-9973
▁노후는	-9974
▁놀라서	-9975
▁농사를	-9976
▁늘었어	-9977
▁다녀온	-9978
▁더이상	-9979
▁도시락	-9980
▁되었나	-9981
▁만만치	-9982
▁먹도록	-9983
▁면접은	-9984
▁모여서	-9985
▁뭔가를	-9986
▁민망해	-9987
▁벌어다	-9988
▁병상에	-9989
▁보냈어	-9990
▁보다가	-9991
▁보이기	-9992
▁복지관	-9993
▁불쾌해	-9994
▁비아냥	-9995
▁사귀어	-9996
▁서글픈	-9997
▁선배를	-9998
▁술자리	-9999
▁시댁에	-10000
▁식사도	-10001
▁쓰러지	-10002
▁안되네	-10003
▁압박을	-10004
▁얘기한	-10005
▁역겨워	-10006
▁오늘이	-10007
▁욕하는	-10008
▁위험한	-10009
▁이래서	-10010
▁이러니	-10011
▁이러면	-10012
▁이러지	-10013
▁임신에	-10014
▁있는걸	-10015
▁자기들	-10016
▁자신해	-10017
▁잡아서	-10018
▁전문가	-10019
▁전화로	-10020
▁정신을	-10021
▁정확한	-10022
▁좋으면	-10023
▁주는데	-10024
▁질문이	-10025
▁챙겨서	-10026
▁처음에	-10027
▁큰돈이	-10028
▁편이라	-10029
▁학원비	-10030
▁할까봐	-10031
▁합격한	-10032
▁해보면	-10033
▁해주실	-10034
▁형편을	-10035
▁화나게	-10036
▁화풀이	-10037
▁회복이	-10038
되었다는	-10039
했었거든	-10040
▁간섭으로	-10041
▁같습니다	-10042
▁고생해서	-10043
▁공장에서	-10044
▁교수님이	-10045
▁그런가요	-10046
▁나가지도	-10047
▁남편까지	-10048
▁뉴스에서	-10049
▁대해서는	-10050
▁도와주실	-10051
▁독립해야	-10052
▁돌아오는	-10053
▁동생보다	-10054
▁동생한테	-10055
▁되겠네요	-10056
▁따라주지	-10057
▁막막해서	-10058
▁매일같이	-10059
▁먹을수록	-10060
▁모자라서	-10061
▁물어보면	-10062
▁바뀌어서	-10063
▁불안장애	-10064
▁불편하게	-10065
▁서류전형	-10066
▁성격으로	-10067
▁슬프신가	-10068
▁싶었지만	-10069
▁엄마로서	-10070
▁없어지니	-10071
▁오늘까지	-10072
▁외롭다고	-10073
▁이제까지	-10074
▁인생이야	-10075
▁자녀분과	-10076
▁자녀분의	-10077
▁자신한테	-10078
▁잔소리만	-10079
▁장래희망	-10080
▁조심해야	-10081
▁중간에서	-10082
▁지원해주	-10083
▁참여하지	-10084
▁책임지고	-10085
▁취급하는	-10086
▁친구라서	-10087
▁텔레비전	-10088
▁포기했어	-10089
▁하셨네요	-10090
▁해결책을	-10091
▁후배들이	-10092
▁힘들어져	-10093
▁가족관계가	-10094
▁공부하라고	-10095
▁괴롭히는데	-10096
▁기원할게요	-10097
▁마음이군요	-10098
▁많으시네요	-10099
▁상대방에게	-10100
▁시험공부를	-10101
▁아이들한테	-10102
▁않으셨나요	-10103
▁없으셨군요	-10104
▁오래전부터	-10105
▁인간관계를	-10106
▁자녀분들의	-10107
▁정신질환이	-10108
▁조심스러운	-10109
▁지속적으로	-10110
▁크시겠네요	-10111
▁하루아침에	-10112
▁해야할까요	-10113
▁괜찮아질까요	-10114
▁남자친구와의	-10115
▁대단하시네요	-10116
▁힘드셨겠군요	-10117
▁고민되시는군요	-10118
▁섭섭하시겠어요	-10119
▁짜증나시겠어요	-10120
▁당혹스러우셨겠어요	-10121
▁빛	-10122
▁쪘	-10123
▁캐	-10124
가며	-10125
같은	-10126
난다	-10127
놨어	-10128
님도	-10129
드민	-10130
라네	-10131
량을	-10132
보게	-10133
부에	-10134
스에	-10135
스템	-10136
음에	-10137
이머	-10138
재를	-10139
저곳	-10140
젯밤	-10141
진을	-10142
행을	-10143
형이	-10144
▁걷지	-10145
▁결핵	-10146
▁고소	-10147
▁공기	-10148
▁교과	-10149
▁기댈	-10150
▁기증	-10151
▁꾸미	-10152
▁놀란	-10153
▁놀리	-10154
▁누굴	-10155
▁다를	-10156
▁단지	-10157
▁따른	-10158
▁만기	-10159
▁말과	-10160
▁말래	-10161
▁멈출	-10162
▁메뉴	-10163
▁명을	-10164
▁못나	-10165
▁미쳐	-10166
▁밝은	-10167
▁부당	-10168
▁불륜	-10169
▁사나	-10170
▁사지	-10171
▁안보	-10172
▁약화	-10173
▁엄격	-10174
▁영상	-10175
▁예식	-10176
▁원서	-10177
▁이간	-10178
▁인맥	-10179
▁인상	-10180
▁일진	-10181
▁자란	-10182
▁자영	-10183
▁저질	-10184
▁적적	-10185
▁종류	-10186
▁죽게	-10187
▁차서	-10188
▁찾은	-10189
▁청춘	-10190
▁최악	-10191
▁충실	-10192
▁치는	-10193
▁치킨	-10194
▁투덜	-10195
▁판매	-10196
▁편의	-10197
▁폭언	-10198
▁행운	-10199
▁혼났	-10200
▁활발	-10201
검사를	-10202
드민턴	-10203
떨어진	-10204
봐야지	-10205
분께서	-10206
셨지만	-10207
시간을	-10208
조차도	-10209
준다고	-10210
▁가기도	-10211
▁가져야	-10212
▁같다니	-10213
▁걱정만	-10214
▁걱정해	-10215
▁건강과	-10216
▁걷기도	-10217
▁걸리는	-10218
▁걸어서	-10219
▁결혼해	-10220
▁경우에	-10221
▁구하고	-10222
▁그림을	-10223
▁기업이	-10224
▁기울여	-10225
▁길거리	-10226
▁끊겨서	-10227
▁끊어야	-10228
▁나빴어	-10229
▁나쁘고	-10230
▁나서는	-10231
▁나셔서	-10232
▁늙어가	-10233
▁다가올	-10234
▁담배도	-10235
▁답장이	-10236
▁대단한	-10237
▁돌봐줄	-10238
▁들어줄	-10239
▁들었나	-10240
▁들켜서	-10241
▁마땅히	-10242
▁만사가	-10243
▁많으면	-10244
▁먹다가	-10245
▁모두를	-10246
▁몰라도	-10247
▁몰랐던	-10248
▁몸까지	-10249
▁무시할	-10250
▁반대가	-10251
▁반대를	-10252
▁버릇이	-10253
▁변화에	-10254
▁보고만	-10255
▁본인만	-10256
▁비참한	-10257
▁사기꾼	-10258
▁사느라	-10259
▁사려고	-10260
▁사시는	-10261
▁상황인	-10262
▁생각지	-10263
▁서류가	-10264
▁선배의	-10265
▁소리로	-10266
▁수학을	-10267
▁시대에	-10268
▁시스템	-10269
▁실감이	-10270
▁쓰레기	-10271
▁쓸쓸한	-10272
▁안정을	-10273
▁어색해	-10274
▁어젯밤	-10275
▁여유도	-10276
▁오르고	-10277
▁오지도	-10278
▁요양원	-10279
▁의견은	-10280
▁이제껏	-10281
▁자격지	-10282
▁자전거	-10283
▁잦아서	-10284
▁조건이	-10285
▁주변을	-10286
▁지내실	-10287
▁지냈던	-10288
▁지시를	-10289
▁지저분	-10290
▁직장은	-10291
▁직장의	-10292
▁직장인	-10293
▁집안의	-10294
▁친구로	-10295
▁친척이	-10296
▁퇴직할	-10297
▁툭하면	-10298
▁하길래	-10299
▁하늘이	-10300
▁하니깐	-10301
▁하실지	-10302
▁학자금	-10303
▁한숨이	-10304
▁힘드시	-10305
하셨으면	-10306
했더라면	-10307
▁가족이랑	-10308
▁결정하지	-10309
▁계속해야	-10310
▁고맙다는	-10311
▁고혈압에	-10312
▁관리하는	-10313
▁관리하지	-10314
▁기쁘군요	-10315
▁기획안이	-10316
▁남동생이	-10317
▁내년이면	-10318
▁노력하실	-10319
▁다쳤는데	-10320
▁달라져서	-10321
▁도움으로	-10322
▁되었으면	-10323
▁들어오면	-10324
▁등록금을	-10325
▁마련해야	-10326
▁메시지를	-10327
▁모양일까	-10328
▁바라시는	-10329
▁바보같이	-10330
▁받는다고	-10331
▁받으려면	-10332
▁배드민턴	-10333
▁버림받은	-10334
▁부모로서	-10335
▁부서에서	-10336
▁불안하실	-10337
▁새아빠가	-10338
▁생각하나	-10339
▁승진해서	-10340
▁승진했어	-10341
▁신체적인	-10342
▁쓸데없는	-10343
▁아니에요	-10344
▁아들과의	-10345
▁아팠는데	-10346
▁아프신데	-10347
▁않았다는	-10348
▁않았어도	-10349
▁어머님께	-10350
▁어울리고	-10351
▁없으세요	-10352
▁오늘따라	-10353
▁이겨내고	-10354
▁이곳저곳	-10355
▁자녀들은	-10356
▁절망적인	-10357
▁집안에서	-10358
▁창피하고	-10359
▁취직하고	-10360
▁퇴직했어	-10361
▁하루에도	-10362
▁하시군요	-10363
▁해줬는데	-10364
▁행동하면	-10365
▁화목하게	-10366
▁후배에게	-10367
▁기분전환을	-10368
▁노후자금이	-10369
▁많으셨어요	-10370
▁말씀이군요	-10371
▁사용자님만	-10372
▁사회생활이	-10373
▁생각할수록	-10374
▁생각해보면	-10375
▁아무에게도	-10376
▁우울증까지	-10377
▁조심스럽네	-10378
▁좋아지려면	-10379
▁좋아하는지	-10380
▁해결방법이	-10381
▁황혼이혼을	-10382
▁걱정되겠어요	-10383
▁돌아가셨군요	-10384
▁불편하셨군요	-10385
▁어려우신가요	-10386
▁괴로우셨겠어요	-10387
▁줍	-10388
▁쪼	-10389
▁찜	-10390
간의	-10391
놓지	-10392
둬서	-10393
등바	-10394
랜드	-10395
리한	-10396
림이	-10397
먹을	-10398
명인	-10399
았을	-10400
우가	-10401
위에	-10402
이도	-10403
쟁이	-10404
졌나	-10405
카락	-10406
클럽	-10407
테롤	-10408
플란	-10409
▁가식	-10410
▁가출	-10411
▁같애	-10412
▁게으	-10413
▁곁을	-10414
▁구는	-10415
▁근심	-10416
▁급식	-10417
▁기부	-10418
▁기쁠	-10419
▁깜박	-10420
▁끊지	-10421
▁나약	-10422
▁내면	-10423
▁내심	-10424
▁내외	-10425
▁논의	-10426
▁닦달	-10427
▁덕분	-10428
▁돌릴	-10429
▁두는	-10430
▁디자	-10431
▁때렸	-10432
▁때에	-10433
▁마실	-10434
▁망치	-10435
▁맞벌	-10436
▁매년	-10437
▁무급	-10438
▁물리	-10439
▁미팅	-10440
▁밀어	-10441
▁바뀔	-10442
▁밖을	-10443
▁발로	-10444
▁배달	-10445
▁부도	-10446
▁비혼	-10447
▁뻔히	-10448
▁사직	-10449
▁살짝	-10450
▁설마	-10451
▁성사	-10452
▁암을	-10453
▁열중	-10454
▁오질	-10455
▁외제	-10456
▁우린	-10457
▁웨딩	-10458
▁임대	-10459
▁임원	-10460
▁자궁	-10461
▁제발	-10462
▁조울	-10463
▁줄지	-10464
▁지가	-10465
▁집과	-10466
▁처가	-10467
▁철이	-10468
▁취해	-10469
▁카톡	-10470
▁투석	-10471
▁팀을	-10472
▁폐가	-10473
▁하찮	-10474
▁할걸	-10475
▁헛살	-10476
다더니	-10477
됐다고	-10478
드리는	-10479
등바등	-10480
셨으니	-10481
시험을	-10482
였으면	-10483
자금을	-10484
하는게	-10485
하던데	-10486
▁가입을	-10487
▁가정의	-10488
▁가지지	-10489
▁같거든	-10490
▁계약이	-10491
▁과거가	-10492
▁금연을	-10493
▁기간에	-10494
▁나머지	-10495
▁난다고	-10496
▁내버려	-10497
▁넘었어	-10498
▁놀자고	-10499
▁다음번	-10500
▁대리가	-10501
▁도전해	-10502
▁돌봐주	-10503
▁뒷말을	-10504
▁들어왔	-10505
▁듯해요	-10506
▁때보다	-10507
▁떠올라	-10508
▁많지만	-10509
▁말실수	-10510
▁먹자고	-10511
▁모두들	-10512
▁무리한	-10513
▁미래의	-10514
▁바뀌는	-10515
▁반대로	-10516
▁버리는	-10517
▁보느라	-10518
▁보았어	-10519
▁빠지게	-10520
▁사과도	-10521
▁사귀기	-10522
▁사무실	-10523
▁사별로	-10524
▁살날이	-10525
▁살려고	-10526
▁상사를	-10527
▁상황과	-10528
▁선택에	-10529
▁섭섭한	-10530
▁승진도	-10531
▁신경써	-10532
▁싶지는	-10533
▁아쉽고	-10534
▁않으려	-10535
▁얄미워	-10536
▁여건이	-10537
▁여력이	-10538
▁연인이	-10539
▁염려가	-10540
▁옛날에	-10541
▁완치가	-10542
▁외모를	-10543
▁요실금	-10544
▁운전을	-10545
▁이루고	-10546
▁이루지	-10547
▁이민을	-10548
▁이상은	-10549
▁이혼할	-10550
▁일마다	-10551
▁일상에	-10552
▁일이지	-10553
▁임플란	-10554
▁잘되지	-10555
▁정리할	-10556
▁좋겠지	-10557
▁주지도	-10558
▁죽을까	-10559
▁지켜보	-10560
▁질환에	-10561
▁척하고	-10562
▁취직한	-10563
▁친구나	-10564
▁콜레스	-10565
▁투자가	-10566
▁평소와	-10567
▁필요는	-10568
▁해결책	-10569
▁해내지	-10570
▁활동에	-10571
받았는데	-10572
셨는지요	-10573
▁가시나요	-10574
▁가져가서	-10575
▁강요하는	-10576
▁경쟁률이	-10577
▁공부하지	-10578
▁관리해야	-10579
▁궁금해요	-10580
▁넣었는데	-10581
▁느껴지지	-10582
▁답답하다	-10583
▁데이트를	-10584
▁떨어지게	-10585
▁만나기도	-10586
▁말았어야	-10587
▁말했더니	-10588
▁머리카락	-10589
▁머릿속이	-10590
▁목소리가	-10591
▁문제라도	-10592
▁받아주는	-10593
▁받았다고	-10594
▁배신감에	-10595
▁복수하고	-10596
▁부장님은	-10597
▁불안했어	-10598
▁상황에는	-10599
▁생겼다니	-10600
▁성공하지	-10601
▁성실하게	-10602
▁소용없어	-10603
▁손자에게	-10604
▁시험인데	-10605
▁싶은가요	-10606
▁싸우시는	-10607
▁아니니까	-10608
▁아등바등	-10609
▁아시나요	-10610
▁어떡하실	-10611
▁어려움에	-10612
▁어른들이	-10613
▁여러가지	-10614
▁오해하고	-10615
▁원만하게	-10616
▁원만하지	-10617
▁의식하는	-10618
▁이혼해서	-10619
▁인정받고	-10620
▁자격증도	-10621
▁자격증이	-10622
▁자녀와의	-10623
▁주변사람	-10624
▁지날수록	-10625
▁직장으로	-10626
▁진학하고	-10627
▁집중해서	-10628
▁취업하지	-10629
▁큰일이네	-10630
▁편안함을	-10631
▁표현하면	-10632
▁하루빨리	-10633
▁함께하는	-10634
▁해결되길	-10635
▁해외여행	-10636
▁허무하게	-10637
▁험담하는	-10638
▁황혼이혼	-10639
▁후회하는	-10640
▁거래처에서	-10641
▁걱정이신가	-10642
▁건강하셔서	-10643
▁나쁘시군요	-10644
▁만나셨군요	-10645
▁많으신가요	-10646
▁모양입니다	-10647
▁무시당해서	-10648
▁속상하셨을	-10649
▁아드님에게	-10650
▁아쉽겠어요	-10651
▁어머니한테	-10652
▁이유만으로	-10653
▁이혼하셔서	-10654
▁준비하면서	-10655
▁중소기업에	-10656
▁취직했는데	-10657
▁콜레스테롤	-10658
▁한심하다는	-10659
▁혼란스럽네	-10660
▁후회되시는	-10661
▁힘들어져서	-10662
▁궁금하시군요	-10663
▁당황스러워서	-10664
▁서운하셨군요	-10665
▁여자친구한테	-10666
▁힘드셨겠네요	-10667
▁무거우시겠어요	-10668
▁슬퍼하시는군요	-10669
▁심란하시겠어요	-10670
▁피곤하시겠어요	-10671
▁스트레스받으시는군요	-10672
▁겸	-10673
▁껄	-10674
▁끈	-10675
▁끓	-10676
▁돋	-10677
▁섬	-10678
▁싹	-10679
▁액	-10680
▁탕	-10681
걸까	-10682
것을	-10683
그제	-10684
끄러	-10685
도에	-10686
들로	-10687
랑은	-10688
리라	-10689
리로	-10690
면접	-10691
번호	-10692
보려	-10693
브를	-10694
센트	-10695
스런	-10696
위해	-10697
이란	-10698
이터	-10699
일지	-10700
잡을	-10701
주로	-10702
치레	-10703
투명	-10704
혈로	-10705
▁감염	-10706
▁개념	-10707
▁고기	-10708
▁공공	-10709
▁교무	-10710
▁근래	-10711
▁급격	-10712
▁기존	-10713
▁까닭	-10714
▁끼어	-10715
▁낯을	-10716
▁내니	-10717
▁낼까	-10718
▁다루	-10719
▁돕고	-10720
▁동물	-10721
▁동반	-10722
▁때와	-10723
▁매주	-10724
▁멋있	-10725
▁면역	-10726
▁모범	-10727
▁목욕	-10728
▁몸만	-10729
▁무식	-10730
▁문화	-10731
▁뭐해	-10732
▁변해	-10733
▁볼지	-10734
▁봤던	-10735
▁부디	-10736
▁부를	-10737
▁불법	-10738
▁사돈	-10739
▁산에	-10740
▁실기	-10741
▁안가	-10742
▁알까	-10743
▁알던	-10744
▁연기	-10745
▁옷에	-10746
▁완성	-10747
▁일반	-10748
▁잊을	-10749
▁자상	-10750
▁잤어	-10751
▁절친	-10752
▁채우	-10753
▁처한	-10754
▁청각	-10755
▁치러	-10756
▁케이	-10757
▁타는	-10758
▁평온	-10759
▁풀려	-10760
▁피할	-10761
▁하자	-10762
▁한평	-10763
▁험한	-10764
▁회원	-10765
▁휴식	-10766
▁흉을	-10767
나가면	-10768
나가야	-10769
드려야	-10770
버렸네	-10771
스러웠	-10772
시키지	-10773
었다면	-10774
였는지	-10775
으셨나	-10776
임에도	-10777
함으로	-10778
해지면	-10779
▁가난을	-10780
▁가망이	-10781
▁가벼워	-10782
▁간호를	-10783
▁걸렸대	-10784
▁계시니	-10785
▁고치고	-10786
▁골프를	-10787
▁공감이	-10788
▁관두고	-10789
▁관리가	-10790
▁구해서	-10791
▁그러기	-10792
▁금액을	-10793
▁기뻐서	-10794
▁기쁘네	-10795
▁나라도	-10796
▁나오네	-10797
▁난감한	-10798
▁난리야	-10799
▁남에게	-10800
▁남자는	-10801
▁남자애	-10802
▁노력도	-10803
▁놀이공	-10804
▁누나는	-10805
▁누나를	-10806
▁대가를	-10807
▁되찾을	-10808
▁두렵네	-10809
▁들었던	-10810
▁말고도	-10811
▁머리도	-10812
▁멋져요	-10813
▁모으고	-10814
▁못하신	-10815
▁반찬을	-10816
▁병실에	-10817
▁병원도	-10818
▁병원이	-10819
▁보고도	-10820
▁보이나	-10821
▁본다고	-10822
▁부르는	-10823
▁불투명	-10824
▁비해서	-10825
▁사용할	-10826
▁사줬어	-10827
▁사회가	-10828
▁상의해	-10829
▁상황일	-10830
▁설득할	-10831
▁소득을	-10832
▁속으로	-10833
▁수술로	-10834
▁습관이	-10835
▁시달리	-10836
▁신나는	-10837
▁싫군요	-10838
▁싶거든	-10839
▁아마도	-10840
▁아우가	-10841
▁악화되	-10842
▁양심에	-10843
▁어깨가	-10844
▁어찌할	-10845
▁여자는	-10846
▁여행이	-10847
▁영향이	-10848
▁온라인	-10849
▁요청해	-10850
▁이유에	-10851
▁일이든	-10852
▁있으실	-10853
▁자기만	-10854
▁잘하면	-10855
▁재미를	-10856
▁전원주	-10857
▁정보가	-10858
▁졸업식	-10859
▁즐기지	-10860
▁지르고	-10861
▁진실을	-10862
▁진행이	-10863
▁참겠어	-10864
▁축구를	-10865
▁취직에	-10866
▁친척들	-10867
▁캄캄해	-10868
▁크군요	-10869
▁통보에	-10870
▁퍼센트	-10871
▁하려는	-10872
▁학생이	-10873
▁회복을	-10874
▁휴식을	-10875
기보다는	-10876
시키려면	-10877
▁감당하기	-10878
▁건강한데	-10879
▁건강해질	-10880
▁과정에서	-10881
▁구조조정	-10882
▁구해지지	-10883
▁그런가봐	-10884
▁기다려야	-10885
▁노후자금	-10886
▁느껴졌어	-10887
▁늙으니까	-10888
▁다닌다고	-10889
▁당하다니	-10890
▁당황하신	-10891
▁도박으로	-10892
▁되시군요	-10893
▁들겠어요	-10894
▁들었다고	-10895
▁떠났는데	-10896
▁떠올라서	-10897
▁만드나요	-10898
▁만족하고	-10899
▁말씀하신	-10900
▁모습으로	-10901
▁무리하게	-10902
▁보내려고	-10903
▁부담감이	-10904
▁부럽기도	-10905
▁부장님의	-10906
▁부족으로	-10907
▁불쌍하고	-10908
▁살아가고	-10909
▁생기니까	-10910
▁성적표가	-10911
▁슬퍼하는	-10912
▁슬픔에서	-10913
▁신경쓰이	-10914
▁아닌데도	-10915
▁아프지만	-10916
▁안쓰럽고	-10917
▁않았다면	-10918
▁어머님의	-10919
▁어울리기	-10920
▁억울해서	-10921
▁없으신가	-10922
▁예민하게	-10923
▁위축되는	-10924
▁은행에서	-10925
▁의문이야	-10926
▁의심하고	-10927
▁의지하는	-10928
▁이러지도	-10929
▁이전에도	-10930
▁있었다면	-10931
▁자녀들도	-10932
▁저러지도	-10933
▁정상적인	-10934
▁지방으로	-10935
▁책임지지	-10936
▁처음이야	-10937
▁취업하는	-10938
▁친구하고	-10939
▁테스트를	-10940
▁폭력적인	-10941
▁하시는지	-10942
▁합격하지	-10943
▁합병증이	-10944
▁해드리고	-10945
▁힘드셨나	-10946
중이시군요	-10947
▁걱정거리가	-10948
▁고민하시는	-10949
▁공부하기가	-10950
▁관절염으로	-10951
▁괜찮을까요	-10952
▁괴롭겠어요	-10953
▁뇌졸중으로	-10954
▁대인관계로	-10955
▁동호회에서	-10956
▁떨어지니까	-10957
▁말씀드리는	-10958
▁보시는군요	-10959
▁상황이라서	-10960
▁상황인가요	-10961
▁수업시간에	-10962
▁어려서부터	-10963
▁외로우신가	-10964
▁인정해주지	-10965
▁일상생활을	-10966
▁자랑스러운	-10967
▁직장동료가	-10968
▁직장에서도	-10969
▁현실적으로	-10970
▁혐오스러운	-10971
▁후회스러운	-10972
▁당황했겠어요	-10973
▁불안하겠어요	-10974
▁여자친구와의	-10975
▁예정이신가요	-10976
▁필요하시군요	-10977
▁혼란스럽군요	-10978
▁불안하시겠군요	-10979
▁안쓰러우시군요	-10980
▁의심스러우시군요	-10981
▁후회스러우시군요	-10982
▁값	-10983
▁놈	-10984
▁몫	-10985
맛이	-10986
망정	-10987
분은	-10988
상의	-10989
생각	-10990
아도	-10991
에겐	-10992
였지	-10993
의가	-10994
작정	-10995
절로	-10996
정도	-10997
졌던	-10998
졌을	-10999
티를	-11000
후군	-11001
▁간절	-11002
▁감시	-11003
▁감이	-11004
▁고치	-11005
▁공을	-11006
▁과한	-11007
▁권고	-11008
▁그날	-11009
▁깨끗	-11010
▁깨서	-11011
▁깨어	-11012
▁꼬박	-11013
▁나무	-11014
▁날만	-11015
▁날을	-11016
▁날카	-11017
▁내어	-11018
▁년은	-11019
▁도서	-11020
▁독감	-11021
▁됐을	-11022
▁박탈	-11023
▁밝혀	-11024
▁병환	-11025
▁보던	-11026
▁불황	-11027
▁빨래	-11028
▁생리	-11029
▁쉬어	-11030
▁스무	-11031
▁스킨	-11032
▁애써	-11033
▁어딘	-11034
▁얹혀	-11035
▁예순	-11036
▁온전	-11037
▁왔다	-11038
▁우려	-11039
▁유능	-11040
▁이따	-11041
▁잃을	-11042
▁잠들	-11043
▁전날	-11044
▁점은	-11045
▁정직	-11046
▁제시	-11047
▁줄만	-11048
▁중단	-11049
▁지났	-11050
▁지불	-11051
▁짐작	-11052
▁타지	-11053
▁택시	-11054
▁푼도	-11055
▁한정	-11056
▁한탄	-11057
▁확진	-11058
과에서	-11059
당할까	-11060
분들과	-11061
시기로	-11062
시려면	-11063
이라며	-11064
조절을	-11065
주어서	-11066
줬더니	-11067
하시지	-11068
▁가장이	-11069
▁고민에	-11070
▁괴롭다	-11071
▁굴어서	-11072
▁기술을	-11073
▁기침이	-11074
▁깨어나	-11075
▁끊었어	-11076
▁놀다가	-11077
▁누구의	-11078
▁누워있	-11079
▁느껴진	-11080
▁늘어난	-11081
▁다니게	-11082
▁다니다	-11083
▁당하면	-11084
▁대하고	-11085
▁도와줘	-11086
▁독립할	-11087
▁돌이켜	-11088
▁됐거든	-11089
▁되기도	-11090
▁되시길	-11091
▁든다는	-11092
▁들려주	-11093
▁때문이	-11094
▁뛰어난	-11095
▁만남을	-11096
▁멀어서	-11097
▁명단에	-11098
▁무능한	-11099
▁무작정	-11100
▁받다니	-11101
▁배우지	-11102
▁벗들이	-11103
▁보너스	-11104
▁분들을	-11105
▁분들의	-11106
▁분야를	-11107
▁붙었어	-11108
▁비염이	-11109
▁빌려간	-11110
▁빌리고	-11111
▁사니까	-11112
▁사별한	-11113
▁생일선	-11114
▁성가시	-11115
▁손해가	-11116
▁수험생	-11117
▁시선에	-11118
▁시절이	-11119
▁신세를	-11120
▁않다니	-11121
▁않을지	-11122
▁앞으론	-11123
▁애들과	-11124
▁없더라	-11125
▁여자애	-11126
▁여직원	-11127
▁오빠는	-11128
▁오빠의	-11129
▁올해도	-11130
▁욕하고	-11131
▁운동과	-11132
▁운동기	-11133
▁울면서	-11134
▁움직여	-11135
▁원해서	-11136
▁위기를	-11137
▁의견에	-11138
▁이동을	-11139
▁인상을	-11140
▁인수인	-11141
▁자녀와	-11142
▁장례를	-11143
▁재밌는	-11144
▁저라도	-11145
▁저축한	-11146
▁조용한	-11147
▁조절이	-11148
▁좋은가	-11149
▁지출을	-11150
▁진로와	-11151
▁진지한	-11152
▁짜증도	-11153
▁출근할	-11154
▁투자에	-11155
▁파티를	-11156
▁표정을	-11157
▁학과를	-11158
▁학교는	-11159
▁학부모	-11160
▁학점이	-11161
▁함께한	-11162
▁해내고	-11163
▁헤어질	-11164
▁현명한	-11165
▁형에게	-11166
▁혜택을	-11167
▁화분을	-11168
▁회복될	-11169
▁회비를	-11170
▁후배의	-11171
것같아요	-11172
만으로도	-11173
해달라고	-11174
▁가정폭력	-11175
▁결정해야	-11176
▁경우에는	-11177
▁고백했어	-11178
▁괴로우실	-11179
▁그러는데	-11180
▁기념일을	-11181
▁기다리던	-11182
▁기저귀를	-11183
▁꾸지람을	-11184
▁나오라고	-11185
▁나왔나요	-11186
▁나이에도	-11187
▁누구한테	-11188
▁느낌이라	-11189
▁다했는데	-11190
▁당한다는	-11191
▁동창회에	-11192
▁드신다니	-11193
▁들어가지	-11194
▁떠나셔서	-11195
▁떠넘기는	-11196
▁떨쳐내기	-11197
▁많으셔서	-11198
▁몸무게가	-11199
▁무시당한	-11200
▁바라보는	-11201
▁부담감을	-11202
▁비교돼서	-11203
▁사라지고	-11204
▁사라지는	-11205
▁사람들만	-11206
▁상사분이	-11207
▁생각만큼	-11208
▁서운함을	-11209
▁선배들이	-11210
▁시간이나	-11211
▁시끄럽게	-11212
▁실천하는	-11213
▁싸우다가	-11214
▁싸움으로	-11215
▁아니겠지	-11216
▁아이한테	-11217
▁안중에도	-11218
▁어렵다는	-11219
▁어린아이	-11220
▁어이없어	-11221
▁예민해서	-11222
▁요구해서	-11223
▁웃으면서	-11224
▁의사선생	-11225
▁이해돼요	-11226
▁이해해요	-11227
▁일하시는	-11228
▁있으시길	-11229
▁잘해주는	-11230
▁재미있게	-11231
▁좋겠다는	-11232
▁주말에는	-11233
▁준비하던	-11234
▁지나가는	-11235
▁지난달에	-11236
▁찾으려고	-11237
▁책임감을	-11238
▁취업준비	-11239
▁치료비로	-11240
▁퇴직하면	-11241
▁표현하고	-11242
▁학생들이	-11243
▁한순간에	-11244
▁한심해서	-11245
▁할머니의	-11246
▁화풀이를	-11247
▁힘드니까	-11248
▁힘들어해	-11249
▁가족들끼리	-11250
▁간섭하셔서	-11251
▁그만두라고	-11252
▁노후준비는	-11253
▁도와달라고	-11254
▁무기력함을	-11255
▁부모님까지	-11256
▁비교하면서	-11257
▁속상하시고	-11258
▁쓰이겠어요	-11259
▁아내분께서	-11260
▁위험하다고	-11261
▁이혼했는데	-11262
▁일상생활도	-11263
▁점심시간에	-11264
▁좋으실까요	-11265
▁가라앉을까요	-11266
▁말씀드렸는데	-11267
▁부러우셨군요	-11268
▁우울하셨군요	-11269
▁미안하시겠어요	-11270
▁억울하셨겠어요	-11271
▁뉘	-11272
▁댄	-11273
▁띄	-11274
▁맥	-11275
▁쌍	-11276
▁텅	-11277
가로	-11278
개를	-11279
관리	-11280
기한	-11281
달라	-11282
더미	-11283
둥이	-11284
리만	-11285
말이	-11286
반이	-11287
번이	-11288
신저	-11289
우를	-11290
위원	-11291
으나	-11292
자라	-11293
치도	-11294
타를	-11295
했네	-11296
히지	-11297
▁가다	-11298
▁갖는	-11299
▁거동	-11300
▁겹쳐	-11301
▁공간	-11302
▁공평	-11303
▁귀여	-11304
▁글을	-11305
▁까요	-11306
▁꼬투	-11307
▁꽃을	-11308
▁날도	-11309
▁넘치	-11310
▁노안	-11311
▁뉘우	-11312
▁늙는	-11313
▁담보	-11314
▁또한	-11315
▁만회	-11316
▁말리	-11317
▁모친	-11318
▁문과	-11319
▁묻는	-11320
▁물러	-11321
▁미세	-11322
▁보조	-11323
▁사니	-11324
▁사러	-11325
▁사줄	-11326
▁사태	-11327
▁살릴	-11328
▁설거	-11329
▁실은	-11330
▁씨의	-11331
▁앞만	-11332
▁야구	-11333
▁예산	-11334
▁오게	-11335
▁욕설	-11336
▁자립	-11337
▁좋긴	-11338
▁주저	-11339
▁증거	-11340
▁지기	-11341
▁지옥	-11342
▁체크	-11343
▁취득	-11344
▁탓을	-11345
▁튼튼	-11346
▁팀에	-11347
▁판정	-11348
▁폐경	-11349
▁하겠	-11350
▁하길	-11351
▁해온	-11352
▁해코	-11353
▁화났	-11354
▁화려	-11355
▁후를	-11356
거리고	-11357
끔하게	-11358
봤지만	-11359
상태가	-11360
았거든	-11361
질까봐	-11362
하게도	-11363
하신데	-11364
▁가난해	-11365
▁가능한	-11366
▁가보고	-11367
▁가져서	-11368
▁간암에	-11369
▁개선을	-11370
▁거절할	-11371
▁계단을	-11372
▁고민할	-11373
▁과중한	-11374
▁그래야	-11375
▁금리가	-11376
▁기대한	-11377
▁끊어서	-11378
▁나기도	-11379
▁나지만	-11380
▁놀리고	-11381
▁놓쳐서	-11382
▁다리에	-11383
▁다음엔	-11384
▁달부터	-11385
▁대책이	-11386
▁덜어내	-11387
▁도중에	-11388
▁동기들	-11389
▁되었지	-11390
▁드리는	-11391
▁듣는데	-11392
▁듣지를	-11393
▁많거든	-11394
▁많아진	-11395
▁말리지	-11396
▁말인데	-11397
▁맞는데	-11398
▁멀쩡한	-11399
▁메신저	-11400
▁모으는	-11401
▁무섭게	-11402
▁문제와	-11403
▁바꿔서	-11404
▁방도가	-11405
▁백내장	-11406
▁벌어도	-11407
▁변했어	-11408
▁병세가	-11409
▁보험료	-11410
▁부모의	-11411
▁부양을	-11412
▁빠졌어	-11413
▁빠지는	-11414
▁살라고	-11415
▁상위권	-11416
▁생겼나	-11417
▁서울에	-11418
▁선물도	-11419
▁수시로	-11420
▁스킨십	-11421
▁심란해	-11422
▁심하고	-11423
▁쑤시고	-11424
▁아팠어	-11425
▁아프실	-11426
▁아플까	-11427
▁악화된	-11428
▁안정된	-11429
▁애인의	-11430
▁어린애	-11431
▁어지러	-11432
▁여름휴	-11433
▁외모에	-11434
▁울어서	-11435
▁이끌어	-11436
▁일상을	-11437
▁일정이	-11438
▁입장이	-11439
▁있네요	-11440
▁자라서	-11441
▁장거리	-11442
▁장소를	-11443
▁재정적	-11444
▁저에게	-11445
▁정해서	-11446
▁제한이	-11447
▁조절을	-11448
▁주면서	-11449
▁주어진	-11450
▁지내서	-11451
▁지켜야	-11452
▁진작에	-11453
▁차이를	-11454
▁책임질	-11455
▁척하는	-11456
▁척해서	-11457
▁청혼을	-11458
▁치료에	-11459
▁카드를	-11460
▁평범한	-11461
▁피로가	-11462
▁피해만	-11463
▁하반신	-11464
▁형님이	-11465
▁형편에	-11466
▁확실한	-11467
▁효과를	-11468
▁휠체어	-11469
▁힘듦을	-11470
기는커녕	-11471
적으로도	-11472
해주셨어	-11473
▁가까워질	-11474
▁가난에서	-11475
▁가난하게	-11476
▁거였는데	-11477
▁거절했어	-11478
▁걱정이고	-11479
▁건강까지	-11480
▁고마워서	-11481
▁고민이네	-11482
▁골다공증	-11483
▁공부하면	-11484
▁괴롭힘이	-11485
▁기념으로	-11486
▁나빠지는	-11487
▁나오니까	-11488
▁남자에게	-11489
▁남편분께	-11490
▁남편분을	-11491
▁내더라고	-11492
▁노인들을	-11493
▁누군가와	-11494
▁늙었다고	-11495
▁달라지는	-11496
▁당황하고	-11497
▁돌봐주지	-11498
▁동기에게	-11499
▁되셨어요	-11500
▁따돌렸던	-11501
▁막막하다	-11502
▁만들었어	-11503
▁말해주지	-11504
▁먹었다고	-11505
▁멀어졌어	-11506
▁무서웠어	-11507
▁믿을만한	-11508
▁바꾸려면	-11509
▁받으셨나	-11510
▁벌어오는	-11511
▁불안하지	-11512
▁불안해져	-11513
▁비상금을	-11514
▁비참하고	-11515
▁살아가지	-11516
▁상대방의	-11517
▁생활하고	-11518
▁생활해야	-11519
▁수익률이	-11520
▁시간마다	-11521
▁신경질을	-11522
▁써버렸어	-11523
▁아내분을	-11524
▁아쉬움이	-11525
▁않았거든	-11526
▁알아보는	-11527
▁연예인이	-11528
▁오빠에게	-11529
▁요즘따라	-11530
▁원하는데	-11531
▁이중적인	-11532
▁입원하게	-11533
▁입원했어	-11534
▁있다는데	-11535
▁있었다는	-11536
▁있으면서	-11537
▁자랑하는	-11538
▁재미있는	-11539
▁재테크를	-11540
▁좌절했어	-11541
▁죄송해서	-11542
▁주었는데	-11543
▁증상으로	-11544
▁짜증나고	-11545
▁책임지는	-11546
▁코앞인데	-11547
▁하시느라	-11548
▁하신다니	-11549
▁할머니랑	-11550
▁힘드시고	-11551
▁가족분들과	-11552
▁결혼했는데	-11553
▁고지혈증이	-11554
▁기분이었어	-11555
▁남편분에게	-11556
▁다가가기가	-11557
▁당황스러울	-11558
▁뒷바라지를	-11559
▁만성질환에	-11560
▁미안하군요	-11561
▁부장님께서	-11562
▁선생님들이	-11563
▁스트레스와	-11564
▁아이디어가	-11565
▁알아보려고	-11566
▁어려우셔서	-11567
▁어머님께서	-11568
▁이상하다고	-11569
▁좋아한다는	-11570
▁좋으셨나요	-11571
▁편하시군요	-11572
▁풀리실까요	-11573
▁해고당해서	-11574
▁걸리시는군요	-11575
▁극복하셨나요	-11576
▁나쁘셨겠어요	-11577
▁남자친구분과	-11578
▁모르시는군요	-11579
▁사람이었는데	-11580
▁생각했었는데	-11581
▁성가시겠어요	-11582
▁안좋으시군요	-11583
▁않으셨겠어요	-11584
▁알아봐야겠어	-11585
▁한심하시군요	-11586
▁안좋으시겠어요	-11587
▁허탈하시겠어요	-11588
▁당혹스러웠겠어요	-11589
▁이야기해주시겠어요	-11590
▁스트레스받으시겠어요	-11591
▁뒀	-11592
▁북	-11593
감만	-11594
골이	-11595
구가	-11596
기간	-11597
니가	-11598
다나	-11599
돈을	-11600
리니	-11601
모가	-11602
부턴	-11603
수막	-11604
실한	-11605
액을	-11606
으시	-11607
장도	-11608
필요	-11609
한텐	-11610
해를	-11611
해온	-11612
후가	-11613
▁가수	-11614
▁가신	-11615
▁가요	-11616
▁간이	-11617
▁같다	-11618
▁경기	-11619
▁고정	-11620
▁골라	-11621
▁과학	-11622
▁관두	-11623
▁그립	-11624
▁기도	-11625
▁끊기	-11626
▁끼워	-11627
▁날씬	-11628
▁내밀	-11629
▁냉장	-11630
▁놀기	-11631
▁뇌출	-11632
▁단톡	-11633
▁떠는	-11634
▁마셔	-11635
▁막을	-11636
▁매사	-11637
▁몇몇	-11638
▁몇십	-11639
▁받네	-11640
▁발작	-11641
▁발휘	-11642
▁밤낮	-11643
▁백혈	-11644
▁범죄	-11645
▁봤을	-11646
▁불확	-11647
▁사치	-11648
▁서두	-11649
▁성추	-11650
▁성화	-11651
▁세입	-11652
▁소일	-11653
▁속도	-11654
▁승낙	-11655
▁싫대	-11656
▁쓰기	-11657
▁아부	-11658
▁안고	-11659
▁않죠	-11660
▁애랑	-11661
▁야간	-11662
▁약도	-11663
▁연세	-11664
▁올바	-11665
▁왔나	-11666
▁젊게	-11667
▁정밀	-11668
▁조기	-11669
▁조롱	-11670
▁주체	-11671
▁진절	-11672
▁집단	-11673
▁챙긴	-11674
▁청혼	-11675
▁최저	-11676
▁커져	-11677
▁피시	-11678
▁하죠	-11679
▁향상	-11680
▁헤아	-11681
▁화낼	-11682
▁흡족	-11683
감에서	-11684
때마다	-11685
렀는데	-11686
마저도	-11687
바이러	-11688
분들의	-11689
수치가	-11690
시간이	-11691
은커녕	-11692
자료를	-11693
지려면	-11694
하고는	-11695
하도록	-11696
▁가치를	-11697
▁감정도	-11698
▁거기다	-11699
▁겪었어	-11700
▁결실을	-11701
▁경제력	-11702
▁고독한	-11703
▁곳이라	-11704
▁관리도	-11705
▁관리할	-11706
▁구박을	-11707
▁그랬지	-11708
▁급식을	-11709
▁기사를	-11710
▁길이야	-11711
▁끊겼어	-11712
▁나랑은	-11713
▁남동생	-11714
▁남아있	-11715
▁넉넉지	-11716
▁노력의	-11717
▁놓았어	-11718
▁다니면	-11719
▁답답할	-11720
▁당하던	-11721
▁동기와	-11722
▁동기의	-11723
▁됐다고	-11724
▁되지도	-11725
▁드는지	-11726
▁떠날까	-11727
▁마련해	-11728
▁만들지	-11729
▁많은지	-11730
▁말로는	-11731
▁말할까	-11732
▁매일이	-11733
▁멋있어	-11734
▁명문대	-11735
▁모른척	-11736
▁목돈이	-11737
▁믿어서	-11738
▁받으며	-11739
▁발목을	-11740
▁뱃살이	-11741
▁번다고	-11742
▁보내준	-11743
▁봤더니	-11744
▁부도가	-11745
▁부러운	-11746
▁부려서	-11747
▁부자가	-11748
▁불필요	-11749
▁비난을	-11750
▁살기도	-11751
▁살려야	-11752
▁상하고	-11753
▁상했어	-11754
▁생일파	-11755
▁설레고	-11756
▁설명을	-11757
▁소리만	-11758
▁속도가	-11759
▁손실이	-11760
▁수술도	-11761
▁수입은	-11762
▁순간에	-11763
▁순간이	-11764
▁쉬지도	-11765
▁신발을	-11766
▁실수도	-11767
▁싸웠던	-11768
▁아내에	-11769
▁아빠도	-11770
▁아픔을	-11771
▁앉아서	-11772
▁않은가	-11773
▁알아볼	-11774
▁알아봐	-11775
▁약값이	-11776
▁얘기에	-11777
▁어느새	-11778
▁엄하게	-11779
▁없겠지	-11780
▁없으셔	-11781
▁여생을	-11782
▁연락은	-11783
▁예쁘고	-11784
▁예상과	-11785
▁오르는	-11786
▁올라가	-11787
▁왔군요	-11788
▁요구에	-11789
▁육아로	-11790
▁이간질	-11791
▁이직에	-11792
▁입장을	-11793
▁자살을	-11794
▁자신은	-11795
▁잘되는	-11796
▁점수에	-11797
▁정신도	-11798
▁주시지	-11799
▁죽어버	-11800
▁줄이는	-11801
▁중년의	-11802
▁즐기는	-11803
▁지원이	-11804
▁지지해	-11805
▁진정한	-11806
▁집에도	-11807
▁챙겨준	-11808
▁처리할	-11809
▁칭찬해	-11810
▁키워야	-11811
▁툴툴대	-11812
▁틀려서	-11813
▁하거나	-11814
▁하나를	-11815
▁하나씩	-11816
▁하네요	-11817
▁학력이	-11818
▁합병증	-11819
▁해야할	-11820
▁해줬어	-11821
▁허리도	-11822
▁형한테	-11823
▁희망도	-11824
▁힘든지	-11825
되었는데	-11826
하려는데	-11827
하실까요	-11828
▁가게에서	-11829
▁가능성이	-11830
▁가셨군요	-11831
▁가치관이	-11832
▁강요해서	-11833
▁거짓말이	-11834
▁것일까요	-11835
▁계획대로	-11836
▁고지혈증	-11837
▁괴로워서	-11838
▁괴롭힐까	-11839
▁꼼꼼하게	-11840
▁꾸준하게	-11841
▁끊으라고	-11842
▁내성적인	-11843
▁늦어져서	-11844
▁대하기가	-11845
▁대학원을	-11846
▁돌아와서	-11847
▁되었다는	-11848
▁때문이라	-11849
▁만만하게	-11850
▁멀어지게	-11851
▁못할까봐	-11852
▁못했다고	-11853
▁무관심한	-11854
▁무엇이든	-11855
▁물어봤어	-11856
▁미안했어	-11857
▁받는군요	-11858
▁받으니까	-11859
▁부끄럽네	-11860
▁부인에게	-11861
▁불안하게	-11862
▁빌렸는데	-11863
▁사과해야	-11864
▁사무실에	-11865
▁생각대로	-11866
▁소중하게	-11867
▁시달리고	-11868
▁시장에서	-11869
▁식구들과	-11870
▁싫어할까	-11871
▁쓸모없어	-11872
▁않으시는	-11873
▁알았거든	-11874
▁억울했어	-11875
▁언니한테	-11876
▁우리집은	-11877
▁운동해서	-11878
▁운영하는	-11879
▁유일하게	-11880
▁은퇴해서	-11881
▁이것밖에	-11882
▁이벤트를	-11883
▁인생에서	-11884
▁일이지만	-11885
▁장난감을	-11886
▁절망적이	-11887
▁주말마다	-11888
▁줄이려면	-11889
▁지냈는데	-11890
▁진정시킬	-11891
▁챙겨줘야	-11892
▁청첩장을	-11893
▁친해지지	-11894
▁탈락해서	-11895
▁퇴직해서	-11896
▁틀어져서	-11897
▁포기하지	-11898
▁하루라도	-11899
▁해결하려	-11900
▁해왔는데	-11901
▁헬스클럽	-11902
▁혼란스럽	-11903
▁화장실을	-11904
▁힘드신데	-11905
▁가난하다고	-11906
▁감정적으로	-11907
▁건강식품을	-11908
▁길거리에서	-11909
▁나오셨군요	-11910
▁남편분과의	-11911
▁당혹스럽네	-11912
▁당황스럽다	-11913
▁당황하셨을	-11914
▁대단하세요	-11915
▁떨어졌는데	-11916
▁만들었는데	-11917
▁무시한다고	-11918
▁물어봤는데	-11919
▁받으시나요	-11920
▁부모님께도	-11921
▁사용자님께	-11922
▁사용자님도	-11923
▁생각하나요	-11924
▁선택일까요	-11925
▁아드님께서	-11926
▁우울해지는	-11927
▁있으셨다니	-11928
▁잔소리하는	-11929
▁죄책감에서	-11930
▁주변에서는	-11931
▁찾으셨군요	-11932
▁친구들과도	-11933
▁후회하시는	-11934
▁가족들에게도	-11935
▁걱정이신가요	-11936
▁기쁘시겠네요	-11937
▁돌아가셨는데	-11938
▁복잡하시군요	-11939
▁상하시겠어요	-11940
▁섭섭하시군요	-11941
▁시작하셨군요	-11942
▁학교폭력으로	-11943
▁난감하시겠어요	-11944
▁자신하시는군요	-11945
▁좋아하시는군요	-11946
▁즐거우시겠어요	-11947
▁회의적이시군요	-11948
▁후회되시겠어요	-11949
▁부담스러우시군요	-11950
▁불안해하시는군요	-11951
▁조심스러우시겠어요	-11952
▁껴	-11953
▁댁	-11954
▁땀	-11955
▁샘	-11956
▁섰	-11957
▁퉁	-11958
▁페	-11959
관을	-11960
국이	-11961
길까	-11962
나고	-11963
날까	-11964
날을	-11965
다시	-11966
단히	-11967
대면	-11968
대학	-11969
렸대	-11970
보여	-11971
색이	-11972
서야	-11973
선을	-11974
수는	-11975
시절	-11976
였나	-11977
워크	-11978
치니	-11979
쾌히	-11980
하곤	-11981
하산	-11982
▁감격	-11983
▁같긴	-11984
▁궁핍	-11985
▁그곳	-11986
▁그로	-11987
▁금번	-11988
▁길로	-11989
▁낙심	-11990
▁내도	-11991
▁내린	-11992
▁넣은	-11993
▁늦는	-11994
▁단계	-11995
▁닮은	-11996
▁돈벌	-11997
▁동결	-11998
▁됐지	-11999
▁두지	-12000
▁때나	-12001
▁막아	-12002
▁말대	-12003
▁목숨	-12004
▁문이	-12005
▁미용	-12006
▁미처	-12007
▁미쳤	-12008
▁바쁠	-12009
▁분해	-12010
▁불합	-12011
▁비염	-12012
▁빨라	-12013
▁사오	-12014
▁사항	-12015
▁상여	-12016
▁생을	-12017
▁수당	-12018
▁수상	-12019
▁실행	-12020
▁쌓아	-12021
▁쓰면	-12022
▁알레	-12023
▁알릴	-12024
▁어버	-12025
▁여건	-12026
▁오답	-12027
▁올린	-12028
▁외도	-12029
▁은사	-12030
▁이길	-12031
▁이렇	-12032
▁인기	-12033
▁읽고	-12034
▁잃는	-12035
▁있단	-12036
▁장만	-12037
▁저항	-12038
▁전업	-12039
▁주름	-12040
▁집값	-12041
▁쪽지	-12042
▁차에	-12043
▁찾게	-12044
▁최신	-12045
▁크네	-12046
▁크지	-12047
▁하라	-12048
▁혼난	-12049
▁횡령	-12050
▁후임	-12051
▁휘둘	-12052
▁힘쓰	-12053
명인간	-12054
받아야	-12055
어버린	-12056
었다네	-12057
었을까	-12058
에서의	-12059
요일에	-12060
으시는	-12061
졌거든	-12062
졌는지	-12063
주시는	-12064
주었어	-12065
친구가	-12066
하기엔	-12067
하길래	-12068
▁가시는	-12069
▁각방을	-12070
▁각자의	-12071
▁간식을	-12072
▁감사할	-12073
▁갚아서	-12074
▁것조차	-12075
▁게임이	-12076
▁고마우	-12077
▁고생할	-12078
▁과하게	-12079
▁관계는	-12080
▁교육에	-12081
▁그러실	-12082
▁기복이	-12083
▁기쁘지	-12084
▁꺼내는	-12085
▁꼼꼼히	-12086
▁나빠지	-12087
▁나서서	-12088
▁나오게	-12089
▁낙하산	-12090
▁느낌에	-12091
▁다니니	-12092
▁단둘이	-12093
▁동창을	-12094
▁됐나요	-12095
▁드라이	-12096
▁들리는	-12097
▁등급을	-12098
▁따라서	-12099
▁뛰어나	-12100
▁마비될	-12101
▁마찰이	-12102
▁만나야	-12103
▁만남에	-12104
▁말인지	-12105
▁망설이	-12106
▁목표로	-12107
▁몰라라	-12108
▁무슨일	-12109
▁미래도	-12110
▁미세먼	-12111
▁받아줄	-12112
▁방귀를	-12113
▁벌리는	-12114
▁변해서	-12115
▁보고를	-12116
▁보였어	-12117
▁보이니	-12118
▁보지도	-12119
▁본인도	-12120
▁부딪히	-12121
▁부분은	-12122
▁불안할	-12123
▁브랜드	-12124
▁비밀이	-12125
▁빠지지	-12126
▁선택할	-12127
▁슬픈데	-12128
▁시군요	-12129
▁시끄러	-12130
▁시켰어	-12131
▁시험성	-12132
▁식단을	-12133
▁실패할	-12134
▁싫었어	-12135
▁써줘서	-12136
▁쓰는데	-12137
▁쓰러질	-12138
▁쓰려고	-12139
▁쓰면서	-12140
▁쓰이네	-12141
▁아니지	-12142
▁아프기	-12143
▁않으실	-12144
▁애인은	-12145
▁언성을	-12146
▁엄청난	-12147
▁업무와	-12148
▁없냐고	-12149
▁연봉도	-12150
▁연애와	-12151
▁영상을	-12152
▁예후가	-12153
▁오빠랑	-12154
▁왔는지	-12155
▁외국에	-12156
▁외모가	-12157
▁우울할	-12158
▁운동에	-12159
▁원만한	-12160
▁유부남	-12161
▁육아에	-12162
▁이름이	-12163
▁이상의	-12164
▁잃을까	-12165
▁입사를	-12166
▁자격이	-12167
▁자금도	-12168
▁장면을	-12169
▁적당한	-12170
▁전환이	-12171
▁정신병	-12172
▁정하는	-12173
▁조급해	-12174
▁조카가	-12175
▁좀처럼	-12176
▁주눅이	-12177
▁주머니	-12178
▁죽음은	-12179
▁준비만	-12180
▁지나간	-12181
▁지내다	-12182
▁지키고	-12183
▁직장과	-12184
▁진로로	-12185
▁차였어	-12186
▁참아야	-12187
▁책상에	-12188
▁처벌을	-12189
▁추스를	-12190
▁취급해	-12191
▁치매를	-12192
▁타인의	-12193
▁턱없이	-12194
▁폐지를	-12195
▁하겠지	-12196
▁하고싶	-12197
▁하기에	-12198
▁한때는	-12199
▁한부모	-12200
▁한평생	-12201
▁행동할	-12202
▁혼나고	-12203
▁회식에	-12204
▁회식이	-12205
▁희생된	-12206
▁힘으로	-12207
당하셔서	-12208
▁가해자가	-12209
▁거짓말한	-12210
▁걱정이다	-12211
▁건강에는	-12212
▁결혼으로	-12213
▁권고사직	-12214
▁귀찮다고	-12215
▁그동안은	-12216
▁그만둬서	-12217
▁그만하고	-12218
▁기업에서	-12219
▁나셨나요	-12220
▁나왔군요	-12221
▁내려가서	-12222
▁내일까지	-12223
▁노력하면	-12224
▁노인네가	-12225
▁느끼세요	-12226
▁다가가기	-12227
▁다가오고	-12228
▁대리님이	-12229
▁대처하고	-12230
▁대학원에	-12231
▁되겠군요	-12232
▁떠나보내	-12233
▁떠넘겨서	-12234
▁맞는다고	-12235
▁먹고사는	-12236
▁멋지네요	-12237
▁배우자의	-12238
▁버스에서	-12239
▁부끄럽게	-12240
▁부러움을	-12241
▁부족한데	-12242
▁분위기도	-12243
▁불행하고	-12244
▁빠듯한데	-12245
▁뿌듯하고	-12246
▁상처받아	-12247
▁생각하실	-12248
▁성공하고	-12249
▁손자들을	-12250
▁시기인데	-12251
▁신중하게	-12252
▁신혼여행	-12253
▁쓰러졌어	-12254
▁아파트를	-12255
▁아프신가	-12256
▁안심이야	-12257
▁않는다면	-12258
▁알아보지	-12259
▁애들이랑	-12260
▁어려우신	-12261
▁없애려면	-12262
▁엉망이야	-12263
▁예전만큼	-12264
▁유지해야	-12265
▁이대로는	-12266
▁이어나가	-12267
▁이혼하는	-12268
▁익숙하지	-12269
▁자존감을	-12270
▁잔소리에	-12271
▁잘못되면	-12272
▁잘했는데	-12273
▁재취업을	-12274
▁저번에도	-12275
▁정리하고	-12276
▁좋아지니	-12277
▁좋으니까	-12278
▁주는군요	-12279
▁준비하면	-12280
▁지원하는	-12281
▁집안일에	-12282
▁집에서만	-12283
▁집중하고	-12284
▁집중하는	-12285
▁찾아봐야	-12286
▁챙겨주고	-12287
▁처리해야	-12288
▁쳐다봐서	-12289
▁초조함을	-12290
▁출근하기	-12291
▁취직했어	-12292
▁치매라는	-12293
▁투명인간	-12294
▁투자했던	-12295
▁편안해지	-12296
▁학대하는	-12297
▁한다니까	-12298
▁함께하고	-12299
▁행동해서	-12300
▁거절당해서	-12301
▁건강하지만	-12302
▁고생하시는	-12303
▁도와주려고	-12304
▁떨어졌다고	-12305
▁많으셨군요	-12306
▁말씀드려야	-12307
▁말씀드리고	-12308
▁바람피우는	-12309
▁배신당했어	-12310
▁부탁했는데	-12311
▁불편하신가	-12312
▁사람이라는	-12313
▁소득수준이	-12314
▁스트레스만	-12315
▁싫으신가요	-12316
▁어제까지만	-12317
▁예정이세요	-12318
▁외롭겠어요	-12319
▁원망스럽고	-12320
▁지지해주는	-12321
▁직장에서는	-12322
▁짝사랑하는	-12323
▁찾아오지도	-12324
▁프로그램을	-12325
▁회사생활이	-12326
▁회사에서의	-12327
▁회의적이야	-12328
▁후회되시나	-12329
▁곤란하시군요	-12330
▁노후자금으로	-12331
▁당황스럽군요	-12332
▁있으시겠어요	-12333
▁정신적으로도	-12334
▁짜증나셨군요	-12335
▁코로나바이러	-12336
▁괴로우시겠군요	-12337
▁낙담하시겠어요	-12338
▁염려되시는군요	-12339
▁짜증나시는군요	-12340
▁당혹스러우셨군요	-12341
▁안절부절못하겠어	-12342
▁만족스러우시겠어요	-12343
▁곱	-12344
▁둥	-12345
▁씀	-12346
▁잇	-12347
▁촉	-12348
격을	-12349
구요	-12350
길을	-12351
너무	-12352
놓는	-12353
단계	-12354
만은	-12355
문이	-12356
물로	-12357
방이	-12358
보실	-12359
보이	-12360
비에	-12361
사항	-12362
색을	-12363
석에	-12364
오니	-12365
이에	-12366
장만	-12367
▁가던	-12368
▁갈아	-12369
▁갑상	-12370
▁강의	-12371
▁강제	-12372
▁거를	-12373
▁걸지	-12374
▁겪은	-12375
▁경조	-12376
▁공사	-12377
▁공포	-12378
▁과가	-12379
▁교사	-12380
▁교실	-12381
▁구토	-12382
▁굴어	-12383
▁금이	-12384
▁깊이	-12385
▁끼고	-12386
▁난청	-12387
▁남과	-12388
▁났나	-12389
▁낳는	-12390
▁넘쳐	-12391
▁년에	-12392
▁닿지	-12393
▁대들	-12394
▁대중	-12395
▁동참	-12396
▁돼요	-12397
▁두근	-12398
▁들다	-12399
▁떨칠	-12400
▁망한	-12401
▁모인	-12402
▁물거	-12403
▁미친	-12404
▁미흡	-12405
▁바쳐	-12406
▁밥만	-12407
▁방역	-12408
▁법이	-12409
▁보아	-12410
▁복이	-12411
▁부녀	-12412
▁부재	-12413
▁분도	-12414
▁빌어	-12415
▁선을	-12416
▁수십	-12417
▁술이	-12418
▁실감	-12419
▁씀씀	-12420
▁안면	-12421
▁앓아	-12422
▁여가	-12423
▁연극	-12424
▁예술	-12425
▁왜요	-12426
▁우습	-12427
▁위가	-12428
▁이과	-12429
▁일기	-12430
▁입어	-12431
▁자가	-12432
▁잘된	-12433
▁잡은	-12434
▁저금	-12435
▁저는	-12436
▁정정	-12437
▁조사	-12438
▁종합	-12439
▁주게	-12440
▁지게	-12441
▁지연	-12442
▁지위	-12443
▁진찰	-12444
▁짧은	-12445
▁통제	-12446
▁티가	-12447
▁팀의	-12448
▁허약	-12449
▁현장	-12450
▁혈액	-12451
▁형을	-12452
▁회피	-12453
▁흐뭇	-12454
냈는데	-12455
버렸지	-12456
버릴까	-12457
보지도	-12458
았지만	-12459
였다는	-12460
음으로	-12461
일인데	-12462
주려고	-12463
질환이	-12464
해줬어	-12465
▁가끔씩	-12466
▁감당이	-12467
▁거지만	-12468
▁결혼의	-12469
▁경찰이	-12470
▁곁에서	-12471
▁계획도	-12472
▁곤란해	-12473
▁괘씸해	-12474
▁교류가	-12475
▁그랬던	-12476
▁그렇네	-12477
▁그렇죠	-12478
▁근무를	-12479
▁기관지	-12480
▁기대되	-12481
▁기운을	-12482
▁기침을	-12483
▁나눠서	-12484
▁나셨을	-12485
▁나시나	-12486
▁나아진	-12487
▁나와의	-12488
▁남자랑	-12489
▁낫다고	-12490
▁냈더니	-12491
▁노여워	-12492
▁노인들	-12493
▁높다고	-12494
▁누나만	-12495
▁다정한	-12496
▁다치신	-12497
▁닮아서	-12498
▁대답도	-12499
▁대비할	-12500
▁돈까지	-12501
▁동기를	-12502
▁됐으면	-12503
▁되거든	-12504
▁되었을	-12505
▁든다고	-12506
▁등수가	-12507
▁뚜렷한	-12508
▁마시지	-12509
▁마이너	-12510
▁막말을	-12511
▁말대꾸	-12512
▁맛있게	-12513
▁멈추지	-12514
▁면담을	-12515
▁모이는	-12516
▁모임도	-12517
▁모처럼	-12518
▁못해준	-12519
▁반말을	-12520
▁방안을	-12521
▁버는데	-12522
▁보내실	-12523
▁보여줄	-12524
▁불쾌한	-12525
▁사과할	-12526
▁사줘서	-12527
▁산후조	-12528
▁상대의	-12529
▁서로에	-12530
▁성향이	-12531
▁소리도	-12532
▁수영을	-12533
▁쉬면서	-12534
▁시간과	-12535
▁식구가	-12536
▁식이요	-12537
▁싶어져	-12538
▁쓰라고	-12539
▁쓰이고	-12540
▁쓰이는	-12541
▁아름다	-12542
▁앉아있	-12543
▁않겠어	-12544
▁앞길이	-12545
▁약간의	-12546
▁약해진	-12547
▁어렵다	-12548
▁어렵지	-12549
▁영업을	-12550
▁오르면	-12551
▁왔으면	-12552
▁외출도	-12553
▁운동한	-12554
▁울적해	-12555
▁원하고	-12556
▁원했던	-12557
▁의대에	-12558
▁의미를	-12559
▁이웃집	-12560
▁이자가	-12561
▁일으키	-12562
▁자기도	-12563
▁자세를	-12564
▁잘되고	-12565
▁잘사는	-12566
▁잘해준	-12567
▁저축도	-12568
▁저혈압	-12569
▁전공이	-12570
▁제안한	-12571
▁좋거든	-12572
▁주가가	-12573
▁주니까	-12574
▁죽어도	-12575
▁준비된	-12576
▁지내면	-12577
▁지키는	-12578
▁직업은	-12579
▁진로는	-12580
▁진정이	-12581
▁창업을	-12582
▁창피한	-12583
▁출산할	-12584
▁친구인	-12585
▁컸다고	-12586
▁통장을	-12587
▁파일이	-12588
▁풀리는	-12589
▁핑계를	-12590
▁하셨을	-12591
▁학년이	-12592
▁학벌이	-12593
▁한다네	-12594
▁할지를	-12595
▁허락도	-12596
▁환경에	-12597
▁흔쾌히	-12598
▁힘들죠	-12599
하기에는	-12600
하셨는지	-12601
하시려고	-12602
▁가겠다고	-12603
▁걱정된다	-12604
▁건강으로	-12605
▁걸었는데	-12606
▁국민연금	-12607
▁긴장해서	-12608
▁나왔다고	-12609
▁느꼈군요	-12610
▁다가가는	-12611
▁다가가야	-12612
▁당뇨병이	-12613
▁당신에게	-12614
▁대비해서	-12615
▁대해서도	-12616
▁동무들이	-12617
▁동성애자	-12618
▁되셨다니	-12619
▁들어오고	-12620
▁떠오르지	-12621
▁만족하지	-12622
▁많으니까	-12623
▁말씀드리	-12624
▁말씀하실	-12625
▁말하는데	-12626
▁며느리는	-12627
▁못하시는	-12628
▁못할망정	-12629
▁못했거든	-12630
▁못했을까	-12631
▁문제라고	-12632
▁받는다는	-12633
▁배우자를	-12634
▁부양하는	-12635
▁뻔했는데	-12636
▁사람들에	-12637
▁사셨군요	-12638
▁사용하실	-12639
▁사정으로	-12640
▁사춘기인	-12641
▁살아있는	-12642
▁상처받는	-12643
▁상처받으	-12644
▁성가시고	-12645
▁소개해준	-12646
▁숨기려고	-12647
▁심각하게	-12648
▁싶으신가	-12649
▁아니냐고	-12650
▁아드님께	-12651
▁아들하고	-12652
▁악화되는	-12653
▁안도감을	-12654
▁약해져서	-12655
▁어머니랑	-12656
▁연금으로	-12657
▁원활하지	-12658
▁은퇴하게	-12659
▁이야기로	-12660
▁인간이야	-12661
▁인정받는	-12662
▁일주일에	-12663
▁있는지요	-12664
▁잔소리로	-12665
▁장난으로	-12666
▁좋아지게	-12667
▁좋아했던	-12668
▁좋은가요	-12669
▁중소기업	-12670
▁중요한데	-12671
▁지인들과	-12672
▁지지해주	-12673
▁질병으로	-12674
▁팀장님의	-12675
▁평소보다	-12676
▁하시면서	-12677
▁학교생활	-12678
▁학원비가	-12679
▁학원에서	-12680
▁해소하는	-12681
▁했었거든	-12682
▁허전하고	-12683
▁헤어지는	-12684
▁혼자라서	-12685
▁환멸감을	-12686
▁희망하는	-12687
리시는군요	-12688
▁가족여행을	-12689
▁건강해지고	-12690
▁경제활동을	-12691
▁고생했는데	-12692
▁공부하려고	-12693
▁과잉보호로	-12694
▁괜찮았는데	-12695
▁나가버렸어	-12696
▁당황하셨나	-12697
▁도와주셔서	-12698
▁도와줬는데	-12699
▁말씀드리면	-12700
▁모양이군요	-12701
▁무기력하게	-12702
▁미우시군요	-12703
▁반대하시는	-12704
▁보내셨군요	-12705
▁부하직원이	-12706
▁상대적으로	-12707
▁시작하려고	-12708
▁어려워지고	-12709
▁이루어지지	-12710
▁일이었나요	-12711
▁잃어버려서	-12712
▁지하철에서	-12713
▁직장생활이	-12714
▁진절머리가	-12715
▁충격적이고	-12716
▁친구로부터	-12717
▁할머니에게	-12718
▁힘들었거든	-12719
▁다행이시군요	-12720
▁대인관계에서	-12721
▁물어봐야겠어	-12722
▁믿으시는군요	-12723
▁부모님께서는	-12724
▁불안하신가요	-12725
▁심정이시군요	-12726
▁어려우셨군요	-12727
▁좌절하셨군요	-12728
▁친구들로부터	-12729
▁학교폭력위원	-12730
스러우셨겠어요	-12731
▁고마우시겠어요	-12732
▁복잡하시겠어요	-12733
▁신뢰하시는군요	-12734
▁덤	-12735
▁뜬	-12736
▁라	-12737
▁춤	-12738
근을	-12739
까진	-12740
꼬박	-12741
니를	-12742
대고	-12743
되기	-12744
되길	-12745
러기	-12746
마를	-12747
미리	-12748
반에	-12749
보신	-12750
부부	-12751
비도	-12752
서도	-12753
아가	-12754
우니	-12755
움에	-12756
이며	-12757
적을	-12758
주질	-12759
중지	-12760
판에	-12761
표현	-12762
피스	-12763
향을	-12764
혔어	-12765
▁가시	-12766
▁갇혀	-12767
▁건물	-12768
▁고달	-12769
▁괴리	-12770
▁구성	-12771
▁그전	-12772
▁꾸려	-12773
▁끌어	-12774
▁납득	-12775
▁낳지	-12776
▁넓은	-12777
▁넣을	-12778
▁노약	-12779
▁노화	-12780
▁놀다	-12781
▁늘지	-12782
▁당선	-12783
▁대꾸	-12784
▁대책	-12785
▁도태	-12786
▁돈과	-12787
▁됐네	-12788
▁드나	-12789
▁드린	-12790
▁든다	-12791
▁명만	-12792
▁몰두	-12793
▁뭘까	-12794
▁바다	-12795
▁반갑	-12796
▁방황	-12797
▁벌레	-12798
▁벌면	-12799
▁변명	-12800
▁변호	-12801
▁병시	-12802
▁보양	-12803
▁부터	-12804
▁불임	-12805
▁불화	-12806
▁비행	-12807
▁빈혈	-12808
▁뽑는	-12809
▁삼촌	-12810
▁상속	-12811
▁소모	-12812
▁수발	-12813
▁시설	-12814
▁시큰	-12815
▁신규	-12816
▁실내	-12817
▁쌓인	-12818
▁아나	-12819
▁아랫	-12820
▁악성	-12821
▁안내	-12822
▁않다	-12823
▁애지	-12824
▁야속	-12825
▁얻으	-12826
▁여쭈	-12827
▁연구	-12828
▁오네	-12829
▁오신	-12830
▁온통	-12831
▁왕래	-12832
▁작고	-12833
▁재능	-12834
▁저세	-12835
▁전기	-12836
▁전전	-12837
▁정치	-12838
▁조그	-12839
▁조정	-12840
▁주임	-12841
▁중풍	-12842
▁지우	-12843
▁지은	-12844
▁지쳤	-12845
▁진솔	-12846
▁징그	-12847
▁차근	-12848
▁첫날	-12849
▁촉박	-12850
▁충돌	-12851
▁친우	-12852
▁타서	-12853
▁퉁명	-12854
▁파산	-12855
▁폐지	-12856
▁폭발	-12857
▁표시	-12858
▁품고	-12859
▁향후	-12860
▁화끈	-12861
간다고	-12862
관계에	-12863
금까지	-12864
놨더니	-12865
된다는	-12866
드렸어	-12867
때까지	-12868
렸거든	-12869
리면서	-12870
릴까봐	-12871
모임에	-12872
버리는	-12873
소하게	-12874
시지만	-12875
시켰어	-12876
없어서	-12877
였다니	-12878
으라는	-12879
자는데	-12880
주기로	-12881
지려고	-12882
터에서	-12883
하고도	-12884
▁가지도	-12885
▁간다는	-12886
▁감사를	-12887
▁감정은	-12888
▁갔다고	-12889
▁같아도	-12890
▁같으면	-12891
▁것들은	-12892
▁겉도는	-12893
▁고향에	-12894
▁괴로울	-12895
▁괴롭게	-12896
▁교수님	-12897
▁그러질	-12898
▁그렇긴	-12899
▁기대도	-12900
▁기대와	-12901
▁기러기	-12902
▁기운내	-12903
▁꿈꾸던	-12904
▁꿈인데	-12905
▁나는지	-12906
▁나와야	-12907
▁나이로	-12908
▁나인데	-12909
▁날들이	-12910
▁날에는	-12911
▁남한테	-12912
▁내게는	-12913
▁내려면	-12914
▁노리고	-12915
▁녹내장	-12916
▁늦잠을	-12917
▁다가갈	-12918
▁다같이	-12919
▁다단계	-12920
▁다음날	-12921
▁당신은	-12922
▁대비해	-12923
▁데려가	-12924
▁도리어	-12925
▁돌보기	-12926
▁동기는	-12927
▁되더라	-12928
▁되려고	-12929
▁되잖아	-12930
▁둘째가	-12931
▁들켰어	-12932
▁디자인	-12933
▁똑바로	-12934
▁마련을	-12935
▁막내아	-12936
▁말대로	-12937
▁말들이	-12938
▁말로만	-12939
▁망가뜨	-12940
▁맡기고	-12941
▁멋지게	-12942
▁모습은	-12943
▁목표도	-12944
▁못생겼	-12945
▁문자가	-12946
▁미끄러	-12947
▁밑에서	-12948
▁바쁘다	-12949
▁발언을	-12950
▁방식이	-12951
▁배려가	-12952
▁보약을	-12953
▁부분도	-12954
▁부서를	-12955
▁불편할	-12956
▁비법이	-12957
▁사귀게	-12958
▁사귀지	-12959
▁살아남	-12960
▁상사랑	-12961
▁상사로	-12962
▁상처로	-12963
▁상하신	-12964
▁상황도	-12965
▁생활의	-12966
▁생활할	-12967
▁서로가	-12968
▁소통을	-12969
▁수입도	-12970
▁승진할	-12971
▁시누이	-12972
▁식구들	-12973
▁신나게	-12974
▁싫어할	-12975
▁싸우셔	-12976
▁쓰러져	-12977
▁쓴다고	-12978
▁아껴서	-12979
▁아니니	-12980
▁아들만	-12981
▁아저씨	-12982
▁안해서	-12983
▁않아요	-12984
▁알아차	-12985
▁암이래	-12986
▁약속도	-12987
▁업무의	-12988
▁없다네	-12989
▁없어질	-12990
▁예뻐해	-12991
▁예전의	-12992
▁오니까	-12993
▁올리기	-12994
▁왔다고	-12995
▁유능한	-12996
▁유치원	-12997
▁은퇴도	-12998
▁은퇴에	-12999
▁의욕을	-13000
▁이장이	-13001
▁인연이	-13002
▁일했던	-13003
▁자다가	-13004
▁작성한	-13005
▁잔고가	-13006
▁잘려서	-13007
▁잘했어	-13008
▁장점이	-13009
▁재수를	-13010
▁재정을	-13011
▁적어도	-13012
▁전업주	-13013
▁정년퇴	-13014
▁정책이	-13015
▁조건을	-13016
▁종양이	-13017
▁주위의	-13018
▁주인이	-13019
▁지나도	-13020
▁지원도	-13021
▁지켜서	-13022
▁직원과	-13023
▁진행한	-13024
▁질병에	-13025
▁참았어	-13026
▁찾았어	-13027
▁찾으실	-13028
▁채용을	-13029
▁청년이	-13030
▁축하할	-13031
▁카페를	-13032
▁컸는데	-13033
▁키웠어	-13034
▁파혼을	-13035
▁풀려고	-13036
▁피해자	-13037
▁학습을	-13038
▁할텐데	-13039
▁해드릴	-13040
▁했었어	-13041
▁혼나는	-13042
▁화내고	-13043
▁후부터	-13044
셨나봐요	-13045
이신가요	-13046
지더라고	-13047
▁가난하고	-13048
▁가정생활	-13049
▁가족여행	-13050
▁가지려고	-13051
▁갱년기라	-13052
▁거절하지	-13053
▁건강식품	-13054
▁경쟁에서	-13055
▁경제력을	-13056
▁경험으로	-13057
▁괴롭군요	-13058
▁구하기도	-13059
▁군대에서	-13060
▁그럴만한	-13061
▁기대하지	-13062
▁기분으로	-13063
▁꼬박꼬박	-13064
▁꼬투리를	-13065
▁나이까지	-13066
▁나한테도	-13067
▁누구라도	-13068
▁누군가의	-13069
▁대학에서	-13070
▁도와줘야	-13071
▁돌려받지	-13072
▁동료들도	-13073
▁드렸는데	-13074
▁드셨다니	-13075
▁들려주실	-13076
▁들어가니	-13077
▁먹었더니	-13078
▁먹으니까	-13079
▁모아두지	-13080
▁무엇인가	-13081
▁문제까지	-13082
▁미리미리	-13083
▁미안함이	-13084
▁바람피운	-13085
▁방법들이	-13086
▁병원으로	-13087
▁보내줘서	-13088
▁부동산에	-13089
▁부동산을	-13090
▁분노조절	-13091
▁불이익을	-13092
▁불필요한	-13093
▁사과하지	-13094
▁사람마다	-13095
▁사람인지	-13096
▁살았으면	-13097
▁상관없이	-13098
▁상사와의	-13099
▁서러워서	-13100
▁선생님도	-13101
▁설거지를	-13102
▁속상하지	-13103
▁스스로의	-13104
▁시선으로	-13105
▁식습관을	-13106
▁아버님의	-13107
▁안전하게	-13108
▁알았다면	-13109
▁애지중지	-13110
▁어이없고	-13111
▁억울하네	-13112
▁없었나요	-13113
▁염세적인	-13114
▁예상했던	-13115
▁의심하는	-13116
▁이직하고	-13117
▁이해하고	-13118
▁인정하고	-13119
▁일하기도	-13120
▁잃으셔서	-13121
▁자랑하고	-13122
▁자존감도	-13123
▁장기자랑	-13124
▁재발해서	-13125
▁재촉해서	-13126
▁재혼가정	-13127
▁재혼으로	-13128
▁주셨는데	-13129
▁죽겠는데	-13130
▁줄어드니	-13131
▁지내는데	-13132
▁지내려고	-13133
▁지속적인	-13134
▁질투심을	-13135
▁질투하는	-13136
▁집안일만	-13137
▁집안일은	-13138
▁찾아보는	-13139
▁취업으로	-13140
▁친해지기	-13141
▁카페에서	-13142
▁태어났어	-13143
▁퇴직인데	-13144
▁하더라도	-13145
▁하루종일	-13146
▁한심함을	-13147
▁한편으론	-13148
▁핸드폰만	-13149
▁현명하게	-13150
▁황당하고	-13151
▁회의에서	-13152
▁희망퇴직	-13153
▁힘드시죠	-13154
▁건강하다는	-13155
▁결혼식인데	-13156
▁그러셨나요	-13157
▁그렇겠네요	-13158
▁남자친구도	-13159
▁느껴지셔서	-13160
▁당하셨다니	-13161
▁당혹스럽고	-13162
▁대인관계의	-13163
▁때문인가요	-13164
▁말해야겠어	-13165
▁모르겠다고	-13166
▁무기력해지	-13167
▁물어보셔서	-13168
▁받아들이기	-13169
▁받아들이지	-13170
▁부담스럽고	-13171
▁사무실에서	-13172
▁수군거리는	-13173
▁승진했는데	-13174
▁식구들에게	-13175
▁실망했군요	-13176
▁싫으셨군요	-13177
▁쓰이는군요	-13178
▁얘기해주실	-13179
▁업무적으로	-13180
▁예민해져서	-13181
▁왕따시키는	-13182
▁우울하신가	-13183
▁의심스러운	-13184
▁이제부터는	-13185
▁있으시네요	-13186
▁자녀분들께	-13187
▁잔소리해서	-13188
▁정기적으로	-13189
▁지지해주지	-13190
▁체력적으로	-13191
▁팀장님께서	-13192
▁편찮으신데	-13193
▁프로젝트의	-13194
▁학교에서는	-13195
▁후배들에게	-13196
▁힘들겠네요	-13197
▁힘들었지만	-13198
▁고생하셨어요	-13199
▁많으시겠군요	-13200
▁스트레스받는	-13201
▁외로우셨군요	-13202
▁정신질환으로	-13203
▁편하시겠어요	-13204
▁허리디스크가	-13205
▁후회되는군요	-13206
▁후회되시나요	-13207
▁답답하셨겠어요	-13208
▁당혹스럽겠어요	-13209
▁무기력하시군요	-13210
▁불안하셨겠어요	-13211
▁서러우시겠어요	-13212
▁속상하였겠어요	-13213
▁외로우셨겠어요	-13214
▁불만스러우시군요	-13215
▁안타까우시겠어요	-13216
▁덧	-13217
▁봄	-13218
▁붓	-13219
▁습	-13220
▁엇	-13221
감한	-13222
건강	-13223
군데	-13224
기게	-13225
깜빡	-13226
나지	-13227
내시	-13228
년배	-13229
단다	-13230
동반	-13231
러블	-13232
렸지	-13233
모습	-13234
백을	-13235
병원	-13236
서로	-13237
술이	-13238
액이	-13239
였을	-13240
율이	-13241
의의	-13242
인의	-13243
일세	-13244
입을	-13245
저래	-13246
점은	-13247
차근	-13248
채를	-13249
▁가담	-13250
▁감옥	-13251
▁값이	-13252
▁개를	-13253
▁거고	-13254
▁검토	-13255
▁고발	-13256
▁고충	-13257
▁공격	-13258
▁그중	-13259
▁극단	-13260
▁깊어	-13261
▁껄끄	-13262
▁끓여	-13263
▁낙방	-13264
▁났을	-13265
▁노출	-13266
▁놓친	-13267
▁대박	-13268
▁대수	-13269
▁도맡	-13270
▁막말	-13271
▁막히	-13272
▁말싸	-13273
▁무지	-13274
▁방이	-13275
▁배고	-13276
▁배정	-13277
▁백세	-13278
▁뱃살	-13279
▁번은	-13280
▁병들	-13281
▁부응	-13282
▁부쳐	-13283
▁빠르	-13284
▁상냥	-13285
▁성급	-13286
▁시합	-13287
▁않길	-13288
▁얻는	-13289
▁여드	-13290
▁여든	-13291
▁여섯	-13292
▁웃어	-13293
▁의외	-13294
▁일흔	-13295
▁입에	-13296
▁잊어	-13297
▁자랐	-13298
▁잔병	-13299
▁저조	-13300
▁전망	-13301
▁정서	-13302
▁정할	-13303
▁조바	-13304
▁조퇴	-13305
▁중재	-13306
▁중증	-13307
▁직전	-13308
▁청약	-13309
▁축복	-13310
▁치워	-13311
▁큰데	-13312
▁터져	-13313
▁텃밭	-13314
▁학년	-13315
▁해방	-13316
▁형만	-13317
▁화날	-13318
▁후가	-13319
▁훔쳤	-13320
▁흐려	-13321
▁흘려	-13322
냐면서	-13323
되셔서	-13324
버리니	-13325
뿐이라	-13326
센터에	-13327
시하는	-13328
시험에	-13329
시험이	-13330
이라네	-13331
졌나요	-13332
주는데	-13333
주지도	-13334
줬어야	-13335
처리가	-13336
▁가난이	-13337
▁가니까	-13338
▁가려면	-13339
▁가르치	-13340
▁가면서	-13341
▁가봐야	-13342
▁간섭해	-13343
▁강하게	-13344
▁같지도	-13345
▁거니까	-13346
▁걷기가	-13347
▁걷지도	-13348
▁결국은	-13349
▁계속된	-13350
▁계획한	-13351
▁고객이	-13352
▁근처에	-13353
▁급격히	-13354
▁기분만	-13355
▁기억에	-13356
▁꺼리는	-13357
▁끼칠까	-13358
▁나와는	-13359
▁나타날	-13360
▁낙담이	-13361
▁난감해	-13362
▁날마다	-13363
▁내기를	-13364
▁내라고	-13365
▁내려고	-13366
▁내세요	-13367
▁누구랑	-13368
▁누나랑	-13369
▁다하고	-13370
▁다행인	-13371
▁단순한	-13372
▁담배가	-13373
▁대해주	-13374
▁대회에	-13375
▁도둑이	-13376
▁도박을	-13377
▁돌아서	-13378
▁동년배	-13379
▁따르던	-13380
▁따지고	-13381
▁때려치	-13382
▁떠넘기	-13383
▁마음속	-13384
▁만기가	-13385
▁만났던	-13386
▁많아질	-13387
▁말씀은	-13388
▁맞아야	-13389
▁맞지만	-13390
▁물가가	-13391
▁미워서	-13392
▁미치는	-13393
▁밀렸어	-13394
▁바라보	-13395
▁받기로	-13396
▁받는지	-13397
▁방문을	-13398
▁방으로	-13399
▁벌리고	-13400
▁벗에게	-13401
▁변화로	-13402
▁보이면	-13403
▁보자고	-13404
▁부리고	-13405
▁부부의	-13406
▁부장은	-13407
▁사라질	-13408
▁사주지	-13409
▁상하지	-13410
▁생각인	-13411
▁생전에	-13412
▁서럽네	-13413
▁서럽다	-13414
▁성질이	-13415
▁세상의	-13416
▁소비를	-13417
▁소심한	-13418
▁소중히	-13419
▁속이고	-13420
▁수술은	-13421
▁시각에	-13422
▁시선도	-13423
▁씁쓸해	-13424
▁아니게	-13425
▁아버님	-13426
▁안되어	-13427
▁약으로	-13428
▁어두운	-13429
▁어떤게	-13430
▁어떨지	-13431
▁어리석	-13432
▁어머나	-13433
▁어버이	-13434
▁언제든	-13435
▁업무능	-13436
▁오랜만	-13437
▁올려야	-13438
▁외도를	-13439
▁외에도	-13440
▁위로의	-13441
▁위하는	-13442
▁유튜브	-13443
▁육아휴	-13444
▁의지를	-13445
▁이루기	-13446
▁인사고	-13447
▁있었대	-13448
▁잔치를	-13449
▁잘못은	-13450
▁잘하기	-13451
▁잘해줘	-13452
▁재밌게	-13453
▁전처럼	-13454
▁젊은데	-13455
▁정년을	-13456
▁정리가	-13457
▁제출한	-13458
▁조치를	-13459
▁즐거우	-13460
▁지나고	-13461
▁지내게	-13462
▁지장을	-13463
▁직무가	-13464
▁진로도	-13465
▁질러서	-13466
▁참석을	-13467
▁초기에	-13468
▁충고를	-13469
▁취하면	-13470
▁키우기	-13471
▁퇴근을	-13472
▁퇴근이	-13473
▁퇴직이	-13474
▁투정을	-13475
▁트러블	-13476
▁틀렸어	-13477
▁팀에서	-13478
▁편해서	-13479
▁평소엔	-13480
▁하객이	-13481
▁하나는	-13482
▁하자니	-13483
▁학업이	-13484
▁한계를	-13485
▁해봤자	-13486
▁했냐고	-13487
▁했다면	-13488
▁허락해	-13489
▁형편도	-13490
▁화내서	-13491
▁회사라	-13492
▁후회만	-13493
겠더라고	-13494
어버려서	-13495
하겠다는	-13496
했겠네요	-13497
했더라고	-13498
▁가버려서	-13499
▁간암으로	-13500
▁감사했어	-13501
▁갚으라고	-13502
▁걱정이지	-13503
▁것이라는	-13504
▁견디기가	-13505
▁결정하는	-13506
▁경찰서에	-13507
▁고립되어	-13508
▁고민하는	-13509
▁괴롭힘에	-13510
▁교실에서	-13511
▁그만둘까	-13512
▁깜빡깜빡	-13513
▁나갔다가	-13514
▁나라에서	-13515
▁나빠질까	-13516
▁나서부터	-13517
▁나이보다	-13518
▁남아있는	-13519
▁너무너무	-13520
▁늘어나고	-13521
▁늙어서도	-13522
▁다니느라	-13523
▁다르다고	-13524
▁다른사람	-13525
▁다치셔서	-13526
▁달라졌어	-13527
▁달리기를	-13528
▁답답하실	-13529
▁대단해요	-13530
▁대표님이	-13531
▁대화에서	-13532
▁대화하기	-13533
▁덜어내기	-13534
▁도와주면	-13535
▁돌아오지	-13536
▁동떨어진	-13537
▁되었거든	-13538
▁두렵군요	-13539
▁뒷담화를	-13540
▁들어가게	-13541
▁떨어지지	-13542
▁만나려고	-13543
▁만나셔서	-13544
▁만들려고	-13545
▁많았거든	-13546
▁맞벌이를	-13547
▁맡겼는데	-13548
▁먹고살기	-13549
▁물거품이	-13550
▁믿기지가	-13551
▁반대하는	-13552
▁배신했어	-13553
▁백내장이	-13554
▁보답하고	-13555
▁보이려고	-13556
▁부담으로	-13557
▁부부동반	-13558
▁부족했던	-13559
▁비교하면	-13560
▁사귀기가	-13561
▁사용하는	-13562
▁사용해서	-13563
▁상관없는	-13564
▁상했군요	-13565
▁생각해본	-13566
▁생기다니	-13567
▁선택하는	-13568
▁섭섭하고	-13569
▁소득으로	-13570
▁소외되고	-13571
▁속상한데	-13572
▁손님들이	-13573
▁슬프지만	-13574
▁시댁에서	-13575
▁시부모님	-13576
▁시작하면	-13577
▁시키는데	-13578
▁실망하게	-13579
▁실망하고	-13580
▁실망하실	-13581
▁실망할까	-13582
▁싫었는데	-13583
▁싸우셨어	-13584
▁아드님을	-13585
▁아파트에	-13586
▁안됐는데	-13587
▁얘기하지	-13588
▁없었다면	-13589
▁여동생이	-13590
▁외롭다는	-13591
▁용돈으로	-13592
▁우울감이	-13593
▁응급실에	-13594
▁응원해주	-13595
▁의심하게	-13596
▁이유인지	-13597
▁이혼하실	-13598
▁입사하고	-13599
▁자식한테	-13600
▁자신만의	-13601
▁잘됐네요	-13602
▁잘했다고	-13603
▁저축하고	-13604
▁조심하고	-13605
▁좋겠지만	-13606
▁좋아지기	-13607
▁좋아하실	-13608
▁죄의식을	-13609
▁주변에는	-13610
▁지켜보는	-13611
▁직업으로	-13612
▁진학하지	-13613
▁집중력이	-13614
▁차근차근	-13615
▁충분하지	-13616
▁친구마저	-13617
▁친구여서	-13618
▁친절하고	-13619
▁친정엄마	-13620
▁친하지도	-13621
▁케이크를	-13622
▁큰소리를	-13623
▁털어놓고	-13624
▁퇴원하고	-13625
▁툴툴대는	-13626
▁표현하기	-13627
▁표현하는	-13628
▁표현해야	-13629
▁풀렸으면	-13630
▁하겠다는	-13631
▁하나밖에	-13632
▁하시니까	-13633
▁했을까요	-13634
▁행복했어	-13635
▁혼자라고	-13636
▁화장품을	-13637
▁환멸감이	-13638
▁후유증이	-13639
▁희생되는	-13640
▁힘든가요	-13641
▁걱정되세요	-13642
▁결혼생활에	-13643
▁결혼하기로	-13644
▁괴로워하고	-13645
▁괴롭힘으로	-13646
▁국민연금이	-13647
▁되셨겠어요	-13648
▁두려우신가	-13649
▁들었겠어요	-13650
▁말해주세요	-13651
▁멋지시네요	-13652
▁모습이네요	-13653
▁무관심해서	-13654
▁불안하기도	-13655
▁사랑한다는	-13656
▁산부인과에	-13657
▁생일이라고	-13658
▁생활하는데	-13659
▁서운하기도	-13660
▁술자리에서	-13661
▁시어머니의	-13662
▁싫어한다고	-13663
▁아내분에게	-13664
▁아무한테도	-13665
▁어디서부터	-13666
▁억울하기도	-13667
▁예정인가요	-13668
▁오토바이를	-13669
▁인터넷으로	-13670
▁정신질환을	-13671
▁좋아하시나	-13672
▁좌절스러워	-13673
▁죄송하다고	-13674
▁지내시나요	-13675
▁취미생활을	-13676
▁하시더라고	-13677
▁항암치료가	-13678
▁해고당할까	-13679
▁해소될까요	-13680
▁화나겠어요	-13681
▁회복하려면	-13682
▁후유증으로	-13683
▁노력하는데도	-13684
▁다녀오셨군요	-13685
▁담임선생님께	-13686
▁당황스러움을	-13687
▁따돌림당하고	-13688
▁무기력해지고	-13689
▁생각하시는데	-13690
▁생기시는군요	-13691
▁서류전형에서	-13692
▁슬프시겠네요	-13693
▁쓸쓸하시군요	-13694
▁아이디어네요	-13695
▁자기들끼리만	-13696
▁혼란스러우신	-13697
▁걱정되시겠군요	-13698
▁걱정되시겠네요	-13699
▁노력하시는군요	-13700
▁스트레스받아서	-13701
▁꿔	-13702
▁끄	-13703
▁낄	-13704
▁뜯	-13705
▁묵	-13706
▁씌	-13707
▁팍	-13708
가족	-13709
검을	-13710
고짜	-13711
구역	-13712
근이	-13713
기피	-13714
달래	-13715
달아	-13716
당에	-13717
데도	-13718
드니	-13719
럭저	-13720
로를	-13721
률도	-13722
말고	-13723
무니	-13724
무를	-13725
받게	-13726
받기	-13727
변이	-13728
분들	-13729
비는	-13730
생에	-13731
생인	-13732
셨대	-13733
소에	-13734
않고	-13735
연금	-13736
오래	-13737
와야	-13738
졌네	-13739
졌대	-13740
조를	-13741
지나	-13742
차게	-13743
추고	-13744
케팅	-13745
턴트	-13746
통도	-13747
풀이	-13748
했기	-13749
회의	-13750
▁간을	-13751
▁갚는	-13752
▁걔를	-13753
▁거들	-13754
▁결재	-13755
▁구석	-13756
▁구속	-13757
▁구한	-13758
▁그려	-13759
▁그치	-13760
▁기피	-13761
▁끊긴	-13762
▁끼지	-13763
▁내놓	-13764
▁농담	-13765
▁높고	-13766
▁놓지	-13767
▁다짜	-13768
▁닮아	-13769
▁담아	-13770
▁답안	-13771
▁대고	-13772
▁독거	-13773
▁돼지	-13774
▁들뜨	-13775
▁등에	-13776
▁떠들	-13777
▁라면	-13778
▁리가	-13779
▁마침	-13780
▁무단	-13781
▁바꿨	-13782
▁반신	-13783
▁백화	-13784
▁봤자	-13785
▁부군	-13786
▁부닥	-13787
▁분배	-13788
▁불친	-13789
▁비록	-13790
▁사례	-13791
▁속인	-13792
▁손찌	-13793
▁수리	-13794
▁아낌	-13795
▁악착	-13796
▁알기	-13797
▁양친	-13798
▁어긋	-13799
▁엉뚱	-13800
▁옷도	-13801
▁외동	-13802
▁외박	-13803
▁움츠	-13804
▁윗집	-13805
▁입이	-13806
▁자극	-13807
▁자매	-13808
▁장인	-13809
▁적지	-13810
▁전념	-13811
▁정시	-13812
▁져서	-13813
▁주네	-13814
▁즐겨	-13815
▁증명	-13816
▁지목	-13817
▁집어	-13818
▁집의	-13819
▁차도	-13820
▁철저	-13821
▁치질	-13822
▁친목	-13823
▁타개	-13824
▁태풍	-13825
▁트집	-13826
▁특정	-13827
▁파는	-13828
▁팔고	-13829
▁편할	-13830
▁평판	-13831
▁폭이	-13832
▁풍요	-13833
▁하질	-13834
▁한가	-13835
▁한계	-13836
▁해당	-13837
▁해둘	-13838
▁해지	-13839
▁허덕	-13840
▁혜택	-13841
▁혹이	-13842
▁환영	-13843
▁휘두	-13844
▁흐르	-13845
거리로	-13846
관에서	-13847
나가고	-13848
나가는	-13849
다던데	-13850
됐으면	-13851
들처럼	-13852
럭저럭	-13853
레스를	-13854
렸다가	-13855
마비가	-13856
보라고	-13857
상담을	-13858
성으로	-13859
였다고	-13860
오라고	-13861
왔다는	-13862
일이야	-13863
하니깐	-13864
하여서	-13865
학과에	-13866
해지니	-13867
▁가책이	-13868
▁간절히	-13869
▁강요해	-13870
▁걸려도	-13871
▁걸리게	-13872
▁경력단	-13873
▁계약직	-13874
▁고맙게	-13875
▁과제가	-13876
▁관리는	-13877
▁권유로	-13878
▁권유를	-13879
▁그다지	-13880
▁그때의	-13881
▁그러나	-13882
▁급해서	-13883
▁기계로	-13884
▁나가도	-13885
▁나같이	-13886
▁나날이	-13887
▁난동을	-13888
▁내는데	-13889
▁내니까	-13890
▁넉넉한	-13891
▁넘도록	-13892
▁노는데	-13893
▁노인의	-13894
▁노화로	-13895
▁누워서	-13896
▁눈치야	-13897
▁느낌도	-13898
▁느려서	-13899
▁다녀도	-13900
▁다리도	-13901
▁다스릴	-13902
▁다치게	-13903
▁단순히	-13904
▁당뇨를	-13905
▁대신에	-13906
▁대인데	-13907
▁대출금	-13908
▁도전을	-13909
▁돌아간	-13910
▁돌아올	-13911
▁동료는	-13912
▁동생도	-13913
▁됐는지	-13914
▁되세요	-13915
▁되셨나	-13916
▁되었네	-13917
▁두셔서	-13918
▁드셨나	-13919
▁들리지	-13920
▁딸들이	-13921
▁떠나면	-13922
▁떠오르	-13923
▁또다시	-13924
▁마케팅	-13925
▁만날까	-13926
▁말들을	-13927
▁모아두	-13928
▁무겁고	-13929
▁무너져	-13930
▁미술을	-13931
▁바꾸는	-13932
▁반대해	-13933
▁방법엔	-13934
▁배신당	-13935
▁백수로	-13936
▁번번이	-13937
▁벌어진	-13938
▁변하는	-13939
▁보기에	-13940
▁보이네	-13941
▁부부를	-13942
▁분야가	-13943
▁분하고	-13944
▁비웃을	-13945
▁빠듯해	-13946
▁사돈댁	-13947
▁사이의	-13948
▁사정도	-13949
▁사회는	-13950
▁산더미	-13951
▁살겠어	-13952
▁살아계	-13953
▁상담이	-13954
▁상태에	-13955
▁속마음	-13956
▁쉬려고	-13957
▁슬픔에	-13958
▁시간씩	-13959
▁시골로	-13960
▁시원찮	-13961
▁신나고	-13962
▁아들딸	-13963
▁안하는	-13964
▁알아야	-13965
▁암울해	-13966
▁애들만	-13967
▁애정이	-13968
▁약화로	-13969
▁여동생	-13970
▁연차를	-13971
▁예쁘게	-13972
▁오래됐	-13973
▁외국인	-13974
▁웃음이	-13975
▁음식점	-13976
▁이식을	-13977
▁이익을	-13978
▁이후의	-13979
▁일이나	-13980
▁입었어	-13981
▁있는게	-13982
▁자기주	-13983
▁자랑할	-13984
▁자료가	-13985
▁자신과	-13986
▁장난이	-13987
▁전부가	-13988
▁정도의	-13989
▁정성껏	-13990
▁정시에	-13991
▁좋아야	-13992
▁죽겠네	-13993
▁죽을지	-13994
▁지나면	-13995
▁지치는	-13996
▁직무를	-13997
▁진급을	-13998
▁진심이	-13999
▁집까지	-14000
▁집안을	-14001
▁착하고	-14002
▁챙겨줄	-14003
▁청춘을	-14004
▁체중을	-14005
▁취미도	-14006
▁팔아서	-14007
▁평가가	-14008
▁풀려면	-14009
▁풀었어	-14010
▁하겠고	-14011
▁학폭위	-14012
▁한계가	-14013
▁한약을	-14014
▁합격이	-14015
▁해왔던	-14016
▁했어도	-14017
▁행동도	-14018
▁혼내서	-14019
▁활동도	-14020
▁후임이	-14021
▁후회도	-14022
▁후회할	-14023
▁힘겨워	-14024
스럽지만	-14025
어야겠어	-14026
으면서도	-14027
이라는데	-14028
▁갔었는데	-14029
▁같아서는	-14030
▁같은데요	-14031
▁거래처에	-14032
▁결혼해야	-14033
▁고립감이	-14034
▁교무실에	-14035
▁규칙적인	-14036
▁그대로야	-14037
▁그러려면	-14038
▁그러신지	-14039
▁그럭저럭	-14040
▁까다로운	-14041
▁나타나서	-14042
▁낳았는데	-14043
▁내년에는	-14044
▁넉넉하게	-14045
▁노동력을	-14046
▁놀아주지	-14047
▁뇌출혈로	-14048
▁누나에게	-14049
▁늘어나서	-14050
▁다녔다는	-14051
▁다짜고짜	-14052
▁답답하신	-14053
▁당했다는	-14054
▁대수롭지	-14055
▁대인기피	-14056
▁도움받을	-14057
▁돈이라도	-14058
▁드라마를	-14059
▁드리려고	-14060
▁드시군요	-14061
▁따돌림에	-14062
▁마이너스	-14063
▁마트에서	-14064
▁많아지니	-14065
▁많으셨나	-14066
▁말하려고	-14067
▁무시할까	-14068
▁물어봐야	-14069
▁받아들일	-14070
▁발견해서	-14071
▁발생하지	-14072
▁버려지는	-14073
▁병원에도	-14074
▁병이라도	-14075
▁보태주지	-14076
▁복잡해서	-14077
▁부지런히	-14078
▁불안한데	-14079
▁비관적이	-14080
▁비혼주의	-14081
▁사과하는	-14082
▁사랑했던	-14083
▁살아있을	-14084
▁상처받고	-14085
▁생각되어	-14086
▁생기셨나	-14087
▁생활에서	-14088
▁서운하네	-14089
▁성가시네	-14090
▁소개팅이	-14091
▁소홀해서	-14092
▁수행평가	-14093
▁신경쓰여	-14094
▁신경쓰지	-14095
▁신뢰하지	-14096
▁싫어지고	-14097
▁싫어하고	-14098
▁심하셔서	-14099
▁싸우는데	-14100
▁쓸쓸하네	-14101
▁씁쓸하네	-14102
▁아내분께	-14103
▁아닌가요	-14104
▁안된다고	-14105
▁않으세요	-14106
▁얘기했어	-14107
▁어려운가	-14108
▁어려워진	-14109
▁어머니도	-14110
▁억울하실	-14111
▁여유롭지	-14112
▁영양제가	-14113
▁예상하지	-14114
▁옛날에는	-14115
▁오해하는	-14116
▁외로웠어	-14117
▁요청하는	-14118
▁운동하면	-14119
▁움직이기	-14120
▁의존하는	-14121
▁의지해야	-14122
▁이해되지	-14123
▁이혼하면	-14124
▁이혼하지	-14125
▁이혼할까	-14126
▁일어나면	-14127
▁있겠지만	-14128
▁있으려고	-14129
▁작아지는	-14130
▁잔병치레	-14131
▁잘하는지	-14132
▁재미없고	-14133
▁재미있어	-14134
▁재정상황	-14135
▁점심시간	-14136
▁정확하게	-14137
▁졸업인데	-14138
▁좋아지면	-14139
▁죄스러워	-14140
▁죽었다는	-14141
▁차별하는	-14142
▁챙기느라	-14143
▁취소됐어	-14144
▁취직하지	-14145
▁콘서트에	-14146
▁키우는데	-14147
▁트러블이	-14148
▁틀렸다고	-14149
▁팀원들은	-14150
▁팀원들의	-14151
▁평상시에	-14152
▁풀어나가	-14153
▁풀어나갈	-14154
▁필요성을	-14155
▁하기에는	-14156
▁학창시절	-14157
▁학폭위가	-14158
▁한마디도	-14159
▁허탈감을	-14160
▁허탈하네	-14161
▁헛소문을	-14162
▁혼자서도	-14163
▁후회하지	-14164
받으셨군요	-14165
하겠습니다	-14166
▁감사하다고	-14167
▁거절했는데	-14168
▁걱정되기도	-14169
▁겪으셨나요	-14170
▁고생하는데	-14171
▁다행입니다	-14172
▁만성질환을	-14173
▁말씀드리지	-14174
▁먹고살아야	-14175
▁물어보지도	-14176
▁불쌍하다고	-14177
▁불안장애가	-14178
▁불안함에서	-14179
▁불안해하고	-14180
▁불행하다는	-14181
▁사람들처럼	-14182
▁생각하거든	-14183
▁속상했군요	-14184
▁순간적으로	-14185
▁시작하기가	-14186
▁신체장애를	-14187
▁심장마비로	-14188
▁싶으셨군요	-14189
▁않았더라면	-14190
▁얻으셨군요	-14191
▁엄마아빠가	-14192
▁요양원에서	-14193
▁움직이기가	-14194
▁이야기하지	-14195
▁이해하지만	-14196
▁자식들이랑	-14197
▁잘못했는지	-14198
▁재촉하셔서	-14199
▁조원들에게	-14200
▁좋아했는데	-14201
▁죄책감으로	-14202
▁주식투자를	-14203
▁줄어들까요	-14204
▁중간고사를	-14205
▁친구분들의	-14206
▁트라우마가	-14207
▁합격했는데	-14208
▁헤어졌는데	-14209
▁헤어지셔서	-14210
▁힘들겠군요	-14211
▁가득하시군요	-14212
▁갑작스러워서	-14213
▁걱정이었는데	-14214
▁고민이신가요	-14215
▁괴롭힘당하는	-14216
▁기분이셨나요	-14217
▁물어보셨나요	-14218
▁분노하셨군요	-14219
▁사람들로부터	-14220
▁생각하셨어요	-14221
▁서운했겠어요	-14222
▁심란하시군요	-14223
▁억울하겠어요	-14224
▁예정이시군요	-14225
▁혼란스러움을	-14226
▁낙담하셨겠어요	-14227
▁당황하셨겠군요	-14228
▁비통하시겠어요	-14229
▁자책하시는군요	-14230
▁힘들어지셨군요	-14231
▁당황스러우셨겠네요	-14232
▁실망스러우시겠어요	-14233
▁뀌	-14234
▁힐	-14235
검사	-14236
격이	-14237
견이	-14238
교를	-14239
남이	-14240
노동	-14241
니저	-14242
단이	-14243
돌아	-14244
되신	-14245
렸나	-14246
령이	-14247
말에	-14248
면이	-14249
면허	-14250
모를	-14251
밥을	-14252
보내	-14253
복지	-14254
불량	-14255
불리	-14256
뿐이	-14257
성도	-14258
센티	-14259
식도	-14260
신공	-14261
실히	-14262
심에	-14263
안은	-14264
여도	-14265
우실	-14266
익이	-14267
자만	-14268
주니	-14269
처구	-14270
천만	-14271
추는	-14272
털터	-14273
토록	-14274
폰을	-14275
형을	-14276
▁간대	-14277
▁갈라	-14278
▁갖기	-14279
▁같대	-14280
▁거두	-14281
▁고르	-14282
▁고시	-14283
▁공과	-14284
▁공동	-14285
▁과소	-14286
▁과일	-14287
▁그릇	-14288
▁극심	-14289
▁까지	-14290
▁끊임	-14291
▁남성	-14292
▁났네	-14293
▁내며	-14294
▁내정	-14295
▁느린	-14296
▁달도	-14297
▁대장	-14298
▁더군	-14299
▁던져	-14300
▁데리	-14301
▁돌리	-14302
▁돕지	-14303
▁동서	-14304
▁떼를	-14305
▁뜻이	-14306
▁리더	-14307
▁말걸	-14308
▁말야	-14309
▁망쳤	-14310
▁맡긴	-14311
▁먹던	-14312
▁멈춰	-14313
▁모진	-14314
▁못가	-14315
▁못갈	-14316
▁무게	-14317
▁미어	-14318
▁바꾼	-14319
▁바른	-14320
▁밝아	-14321
▁방식	-14322
▁버니	-14323
▁벅찬	-14324
▁번호	-14325
▁병실	-14326
▁본부	-14327
▁본의	-14328
▁빚도	-14329
▁사다	-14330
▁살펴	-14331
▁상할	-14332
▁상환	-14333
▁생산	-14334
▁서둘	-14335
▁선거	-14336
▁선수	-14337
▁선정	-14338
▁순조	-14339
▁스케	-14340
▁습득	-14341
▁시에	-14342
▁쓰려	-14343
▁안드	-14344
▁안맞	-14345
▁알리	-14346
▁어수	-14347
▁연을	-14348
▁오라	-14349
▁옮긴	-14350
▁왔던	-14351
▁의기	-14352
▁이르	-14353
▁이외	-14354
▁인력	-14355
▁인문	-14356
▁입는	-14357
▁있겠	-14358
▁자습	-14359
▁잘리	-14360
▁잠만	-14361
▁장가	-14362
▁장마	-14363
▁저하	-14364
▁전엔	-14365
▁전역	-14366
▁전이	-14367
▁절반	-14368
▁조현	-14369
▁쥐꼬	-14370
▁지울	-14371
▁지칠	-14372
▁지킬	-14373
▁직급	-14374
▁진실	-14375
▁찍은	-14376
▁차고	-14377
▁착용	-14378
▁척해	-14379
▁철수	-14380
▁총각	-14381
▁추진	-14382
▁출발	-14383
▁충고	-14384
▁커질	-14385
▁태산	-14386
▁통증	-14387
▁팍팍	-14388
▁폐업	-14389
▁한꺼	-14390
▁해왔	-14391
▁헛산	-14392
▁호텔	-14393
▁홍삼	-14394
▁화낸	-14395
▁회계	-14396
▁후면	-14397
되다니	-14398
되려면	-14399
되시는	-14400
드려서	-14401
랬는데	-14402
분과의	-14403
생각이	-14404
셨다는	-14405
셨다면	-14406
아이를	-14407
연하게	-14408
웠거든	-14409
을까봐	-14410
인지는	-14411
장애를	-14412
주니까	-14413
줬거든	-14414
하고자	-14415
하더군	-14416
학과를	-14417
활동이	-14418
▁가다니	-14419
▁가서도	-14420
▁가져갔	-14421
▁간만에	-14422
▁갈등에	-14423
▁갔군요	-14424
▁같으니	-14425
▁같지만	-14426
▁거라면	-14427
▁건강히	-14428
▁걸었어	-14429
▁것만큼	-14430
▁것에서	-14431
▁계속할	-14432
▁고장이	-14433
▁고통이	-14434
▁공감해	-14435
▁공부나	-14436
▁구매한	-14437
▁귀여운	-14438
▁그것이	-14439
▁글쎄요	-14440
▁급한데	-14441
▁기회에	-14442
▁꺼내야	-14443
▁난처한	-14444
▁내리는	-14445
▁냈군요	-14446
▁노고를	-14447
▁노인회	-14448
▁놀라신	-14449
▁늘어가	-14450
▁달라질	-14451
▁달에는	-14452
▁달이나	-14453
▁답변을	-14454
▁당황한	-14455
▁대책을	-14456
▁도망가	-14457
▁독감에	-14458
▁돌렸어	-14459
▁돌아왔	-14460
▁동무가	-14461
▁드리면	-14462
▁듣다니	-14463
▁들다니	-14464
▁들여다	-14465
▁떠나게	-14466
▁떨려서	-14467
▁떨어뜨	-14468
▁마주칠	-14469
▁막혀서	-14470
▁말하니	-14471
▁맘처럼	-14472
▁망가진	-14473
▁명복을	-14474
▁모습과	-14475
▁못하여	-14476
▁무릎을	-14477
▁미디어	-14478
▁바보가	-14479
▁반응은	-14480
▁받았던	-14481
▁방학이	-14482
▁버티고	-14483
▁번째야	-14484
▁보내기	-14485
▁분이라	-14486
▁불화로	-14487
▁붙어서	-14488
▁비대면	-14489
▁비용도	-14490
▁빈털터	-14491
▁사건을	-14492
▁사귀던	-14493
▁사진이	-14494
▁살림에	-14495
▁살아있	-14496
▁살았을	-14497
▁살인데	-14498
▁생겼대	-14499
▁생계유	-14500
▁생기게	-14501
▁설거지	-14502
▁소득은	-14503
▁소리에	-14504
▁소질이	-14505
▁수입을	-14506
▁시대가	-14507
▁신난다	-14508
▁실력을	-14509
▁실망할	-14510
▁실천에	-14511
▁실패를	-14512
▁실패해	-14513
▁싸우면	-14514
▁썼어야	-14515
▁쓰느라	-14516
▁아니네	-14517
▁안정이	-14518
▁않는지	-14519
▁알아줄	-14520
▁약속에	-14521
▁어린이	-14522
▁어머님	-14523
▁어처구	-14524
▁억울할	-14525
▁엄두가	-14526
▁없다며	-14527
▁여부를	-14528
▁여행가	-14529
▁옆집에	-14530
▁예뻐서	-14531
▁오면서	-14532
▁온전치	-14533
▁완벽한	-14534
▁왔거든	-14535
▁요구해	-14536
▁위축이	-14537
▁위하여	-14538
▁의견도	-14539
▁의논할	-14540
▁의지도	-14541
▁이따금	-14542
▁이성을	-14543
▁이혼은	-14544
▁인신공	-14545
▁일인가	-14546
▁일하며	-14547
▁일하시	-14548
▁잃으면	-14549
▁있지요	-14550
▁자유를	-14551
▁잘리고	-14552
▁저지른	-14553
▁적성과	-14554
▁적성을	-14555
▁절대로	-14556
▁점수는	-14557
▁주의를	-14558
▁주제로	-14559
▁증거를	-14560
▁증상을	-14561
▁지나치	-14562
▁지방대	-14563
▁지어서	-14564
▁지친다	-14565
▁진학에	-14566
▁진행할	-14567
▁질투도	-14568
▁집주인	-14569
▁찾으러	-14570
▁최소한	-14571
▁추천해	-14572
▁친하던	-14573
▁친해진	-14574
▁터놓을	-14575
▁터무니	-14576
▁평상시	-14577
▁포기할	-14578
▁하찮게	-14579
▁학비를	-14580
▁학생회	-14581
▁학점을	-14582
▁해서는	-14583
▁해줘도	-14584
▁헤어져	-14585
▁화장을	-14586
▁확률이	-14587
▁확인을	-14588
▁활력을	-14589
▁회장이	-14590
▁후련해	-14591
거같아요	-14592
거리라도	-14593
스러우실	-14594
시키려고	-14595
었는데도	-14596
주셨는데	-14597
해주세요	-14598
했다는데	-14599
▁가고싶은	-14600
▁감정으로	-14601
▁개선시킬	-14602
▁걱정해서	-14603
▁건강해진	-14604
▁걸리다니	-14605
▁것뿐인데	-14606
▁계시는지	-14607
▁고민이신	-14608
▁관리하고	-14609
▁괜찮으신	-14610
▁괴로우신	-14611
▁그녀에게	-14612
▁그만두니	-14613
▁기분보다	-14614
▁깨달았어	-14615
▁나을까요	-14616
▁남편께서	-14617
▁낮아져서	-14618
▁느끼셨나	-14619
▁다행인지	-14620
▁당뇨병에	-14621
▁당분간은	-14622
▁당했군요	-14623
▁대부분의	-14624
▁대화하면	-14625
▁더군다나	-14626
▁돌아가실	-14627
▁동아리에	-14628
▁되었지만	-14629
▁두셨군요	-14630
▁뒤통수를	-14631
▁든든하고	-14632
▁등록금이	-14633
▁디스크로	-14634
▁따돌렸어	-14635
▁따라다니	-14636
▁마음고생	-14637
▁말하기도	-14638
▁말해주고	-14639
▁먹으라고	-14640
▁모르니까	-14641
▁모았는데	-14642
▁못하다고	-14643
▁못하다는	-14644
▁미안하지	-14645
▁병원비에	-14646
▁보여주는	-14647
▁부탁하는	-14648
▁불공평해	-14649
▁불편해지	-14650
▁비난하게	-14651
▁비웃어서	-14652
▁사랑받지	-14653
▁사랑해서	-14654
▁사용하고	-14655
▁사이인데	-14656
▁사장님의	-14657
▁사직서를	-14658
▁상하셨나	-14659
▁생각나고	-14660
▁생각밖에	-14661
▁생활비는	-14662
▁서운하신	-14663
▁손주들을	-14664
▁스스로에	-14665
▁시간에도	-14666
▁신뢰감을	-14667
▁신입에게	-14668
▁써버려서	-14669
▁쓰셨군요	-14670
▁아는데도	-14671
▁아저씨가	-14672
▁않을까봐	-14673
▁알려질까	-14674
▁알아들을	-14675
▁어려우니	-14676
▁어머님과	-14677
▁어제부터	-14678
▁언제든지	-14679
▁연락처를	-14680
▁예쁘다고	-14681
▁예정이야	-14682
▁오래돼서	-14683
▁오셨는데	-14684
▁외로우신	-14685
▁우울하게	-14686
▁우울했어	-14687
▁운영하던	-14688
▁위축되고	-14689
▁음주운전	-14690
▁의식하지	-14691
▁의식해서	-14692
▁의지하던	-14693
▁입학하고	-14694
▁적응하기	-14695
▁젊어서는	-14696
▁정도밖에	-14697
▁정말이지	-14698
▁정신없이	-14699
▁좋더라고	-14700
▁좋아지신	-14701
▁좋으신데	-14702
▁주겠다고	-14703
▁주셨나요	-14704
▁주실래요	-14705
▁준비하실	-14706
▁준비했던	-14707
▁질투심이	-14708
▁집착하는	-14709
▁차분하게	-14710
▁초조하네	-14711
▁최근에는	-14712
▁최악이야	-14713
▁탓이겠지	-14714
▁퇴직해야	-14715
▁폐암으로	-14716
▁프로포즈	-14717
▁하시다니	-14718
▁학원비를	-14719
▁한꺼번에	-14720
▁한심하네	-14721
▁해결해주	-14722
▁했더라고	-14723
▁행동하고	-14724
▁행복하실	-14725
▁허무하네	-14726
▁혼자여서	-14727
▁확실하게	-14728
▁황당했어	-14729
▁회사인데	-14730
▁힘들기도	-14731
▁가난하다는	-14732
▁가라앉히기	-14733
▁걱정스럽고	-14734
▁건강해지는	-14735
▁걸리셨다니	-14736
▁경로당에서	-14737
▁고등학생이	-14738
▁공부하느라	-14739
▁공황장애로	-14740
▁나시겠네요	-14741
▁노력하시는	-14742
▁다치셨군요	-14743
▁당장이라도	-14744
▁동창회에서	-14745
▁들어가면서	-14746
▁들어갈수록	-14747
▁들으셨나요	-14748
▁들으셨다니	-14749
▁막막하기만	-14750
▁말씀드리기	-14751
▁머리카락이	-14752
▁사람들과도	-14753
▁상태시군요	-14754
▁새어머니가	-14755
▁소외당하는	-14756
▁스트레스는	-14757
▁슬프겠군요	-14758
▁시어머니를	-14759
▁싫어하시는	-14760
▁심리적으로	-14761
▁아주머니가	-14762
▁얘기하다가	-14763
▁얘기하려고	-14764
▁어머니와의	-14765
▁우울하군요	-14766
▁원하시나요	-14767
▁이혼하려고	-14768
▁임신했는데	-14769
▁있으시다니	-14770
▁자녀들과의	-14771
▁저세상으로	-14772
▁전원주택을	-14773
▁조마조마해	-14774
▁조별과제를	-14775
▁죄책감까지	-14776
▁지금까지의	-14777
▁지원해주지	-14778
▁찾으셨나요	-14779
▁챙겨줬는데	-14780
▁체육시간에	-14781
▁큰일이네요	-14782
▁태어났을까	-14783
▁팀장님에게	-14784
▁편이신가요	-14785
▁프로젝트는	-14786
▁헤어지자는	-14787
▁회사생활에	-14788
▁가장으로서의	-14789
▁걱정되시군요	-14790
▁결정하셨군요	-14791
▁고마우시군요	-14792
▁그리우시군요	-14793
▁나눠보셨나요	-14794
▁답답하겠어요	-14795
▁도와주겠다고	-14796
▁말씀드렸더니	-14797
▁믿음직스러워	-14798
▁부족하시군요	-14799
▁불편하겠어요	-14800
▁서글프시군요	-14801
▁시어머니께서	-14802
▁심근경색으로	-14803
▁안도하셨군요	-14804
▁안좋으신가요	-14805
▁이제부터라도	-14806
▁있으셨을까요	-14807
▁조심스러우신	-14808
▁편해지셨군요	-14809
▁당황스러우셨을	-14810
▁불편하셨겠어요	-14811
▁실망하셨겠네요	-14812
▁절망적이시군요	-14813
▁편안해지셨군요	-14814
▁부끄러우시겠어요	-14815
▁원망스러우시군요	-14816
▁뽀	-14817
▁융	-14818
건만	-14819
겼던	-14820
고등	-14821
관절	-14822
국에	-14823
그라	-14824
내지	-14825
다던	-14826
됐대	-14827
되다	-14828
때가	-14829
랄까	-14830
력에	-14831
백만	-14832
법은	-14833
볼지	-14834
상담	-14835
신경	-14836
싶지	-14837
여를	-14838
움의	-14839
자식	-14840
주에	-14841
지다	-14842
카오	-14843
함은	-14844
▁가네	-14845
▁감량	-14846
▁감싸	-14847
▁거랑	-14848
▁건사	-14849
▁건의	-14850
▁결석	-14851
▁고급	-14852
▁공통	-14853
▁과자	-14854
▁광고	-14855
▁권태	-14856
▁그를	-14857
▁그쪽	-14858
▁급해	-14859
▁급히	-14860
▁길게	-14861
▁김씨	-14862
▁꼴찌	-14863
▁꽃다	-14864
▁꿈만	-14865
▁끊겨	-14866
▁끌고	-14867
▁나나	-14868
▁나날	-14869
▁나로	-14870
▁낯가	-14871
▁낯이	-14872
▁냈던	-14873
▁노름	-14874
▁노산	-14875
▁노하	-14876
▁놀던	-14877
▁놓을	-14878
▁놓인	-14879
▁다칠	-14880
▁단호	-14881
▁달을	-14882
▁댁에	-14883
▁드시	-14884
▁들킨	-14885
▁등하	-14886
▁따름	-14887
▁떨고	-14888
▁망칠	-14889
▁매운	-14890
▁모시	-14891
▁몸살	-14892
▁발목	-14893
▁법을	-14894
▁베껴	-14895
▁베풀	-14896
▁변기	-14897
▁보시	-14898
▁보청	-14899
▁부축	-14900
▁붙고	-14901
▁빨개	-14902
▁사신	-14903
▁사위	-14904
▁살피	-14905
▁상쾌	-14906
▁상품	-14907
▁새삼	-14908
▁서랍	-14909
▁소송	-14910
▁시력	-14911
▁신부	-14912
▁실험	-14913
▁십만	-14914
▁싶진	-14915
▁아가	-14916
▁아흔	-14917
▁않지	-14918
▁앞당	-14919
▁양이	-14920
▁언어	-14921
▁에너	-14922
▁연결	-14923
▁연배	-14924
▁연차	-14925
▁영정	-14926
▁예쁨	-14927
▁왔을	-14928
▁외부	-14929
▁위층	-14930
▁위협	-14931
▁유럽	-14932
▁음료	-14933
▁일용	-14934
▁잃지	-14935
▁입상	-14936
▁작가	-14937
▁잡는	-14938
▁장을	-14939
▁절제	-14940
▁점차	-14941
▁제대	-14942
▁제멋	-14943
▁종교	-14944
▁주가	-14945
▁주차	-14946
▁죽지	-14947
▁차리	-14948
▁참가	-14949
▁척추	-14950
▁출가	-14951
▁친해	-14952
▁토할	-14953
▁특성	-14954
▁학우	-14955
▁해가	-14956
▁해약	-14957
▁했네	-14958
▁헛된	-14959
▁협박	-14960
▁화상	-14961
▁훈육	-14962
가지고	-14963
거렸어	-14964
겠지요	-14965
노동을	-14966
더라구	-14967
렸다는	-14968
문제를	-14969
베이터	-14970
시거든	-14971
시는지	-14972
염으로	-14973
움으로	-14974
자금이	-14975
잖아요	-14976
적인데	-14977
점수가	-14978
진다는	-14979
처리를	-14980
하다며	-14981
할머니	-14982
해져야	-14983
혔는데	-14984
활동도	-14985
회사에	-14986
▁가로챘	-14987
▁가입한	-14988
▁가지만	-14989
▁갚느라	-14990
▁개선될	-14991
▁걱정될	-14992
▁건강만	-14993
▁건강의	-14994
▁건망증	-14995
▁걸리네	-14996
▁걸리지	-14997
▁것이지	-14998
▁경력도	-14999
▁경쟁을	-15000
▁고개를	-15001
▁공감을	-15002
▁공모전	-15003
▁공부로	-15004
▁괜스레	-15005
▁군대에	-15006
▁귀농을	-15007
▁귀찮을	-15008
▁그녀를	-15009
▁그분이	-15010
▁근사한	-15011
▁급여도	-15012
▁급여를	-15013
▁기대는	-15014
▁기쁨이	-15015
▁기억력	-15016
▁기회는	-15017
▁꼴등을	-15018
▁꾸미고	-15019
▁꿈에도	-15020
▁끝이야	-15021
▁나와도	-15022
▁나이와	-15023
▁남편만	-15024
▁났다고	-15025
▁낳아야	-15026
▁내셨어	-15027
▁노약자	-15028
▁노후의	-15029
▁늙었나	-15030
▁늙은이	-15031
▁능력에	-15032
▁다르니	-15033
▁다치는	-15034
▁다치지	-15035
▁다툼을	-15036
▁당당한	-15037
▁당하신	-15038
▁당했던	-15039
▁대중교	-15040
▁덩달아	-15041
▁데려온	-15042
▁데리러	-15043
▁	-15044
.	-15045
이	-15046
어	-15047
요	-15048
하	-15049
는	-15050
을	-15051
가	-15052
고	-15053
서	-15054
아	-15055
에	-15056
지	-15057
해	-15058
나	-15059
시	-15060
게	-15061
?	-15062
다	-15063
있	-15064
들	-15065
도	-15066
기	-15067
군	-15068
까	-15069
무	-15070
데	-15071
로	-15072
를	-15073
자	-15074
으	-15075
사	-15076
내	-15077
한	-15078
은	-15079
겠	-15080
상	-15081
것	-15082
정	-15083
야	-15084
수	-15085
일	-15086
구	-15087
안	-15088
면	-15089
생	-15090
친	-15091
그	-15092
니	-15093
할	-15094
좋	-15095
만	-15096
같	-15097
부	-15098
말	-15099
의	-15100
마	-15101
보	-15102
라	-15103
신	-15104
셨	-15105
없	-15106
떻	-15107
너	-15108
대	-15109
주	-15110
많	-15111
리	-15112
인	-15113
스	-15114
모	-15115
려	-15116
분	-15117
했	-15118
되	-15119
때	-15120
우	-15121
못	-15122
않	-15123
힘	-15124
문	-15125
거	-15126
러	-15127
제	-15128
금	-15129
황	-15130
음	-15131
더	-15132
각	-15133
드	-15134
과	-15135
실	-15136
었	-15137
네	-15138
혼	-15139
장	-15140
화	-15141
님	-15142
직	-15143
적	-15144
건	-15145
속	-15146
남	-15147
오	-15148
잘	-15149
심	-15150
계	-15151
결	-15152
받	-15153
람	-15154
편	-15155
당	-15156
동	-15157
워	-15158
회	-15159
비	-15160
감	-15161
원	-15162
싶	-15163
히	-15164
느	-15165
위	-15166
걱	-15167
학	-15168
불	-15169
여	-15170
봐	-15171
런	-15172
와	-15173
전	-15174
방	-15175
진	-15176
식	-15177
떤	-15178
업	-15179
세	-15180
소	-15181
후	-15182
운	-15183
슬	-15184
래	-15185
돈	-15186
행	-15187
성	-15188
조	-15189
치	-15190
울	-15191
았	-15192
프	-15193
던	-15194
족	-15195
관	-15196
노	-15197
강	-15198
걸	-15199
미	-15200
간	-15201
르	-15202
집	-15203
법	-15204
처	-15205
질	-15206
교	-15207
렇	-15208
셔	-15209
든	-15210
공	-15211
선	-15212
난	-15213
살	-15214
두	-15215
중	-15216
유	-15217
준	-15218
져	-15219
병	-15220
날	-15221
경	-15222
연	-15223
민	-15224
력	-15225
엇	-15226
앞	-15227
증	-15228
움	-15229
께	-15230
번	-15231
취	-15232
랑	-15233
애	-15234
바	-15235
트	-15236
돼	-15237
알	-15238
끼	-15239
른	-15240
테	-15241
버	-15242
늘	-15243
점	-15244
퇴	-15245
외	-15246
줄	-15247
엄	-15248
망	-15249
매	-15250
복	-15251
돌	-15252
빠	-15253
즘	-15254
왜	-15255
변	-15256
저	-15257
물	-15258
괴	-15259
용	-15260
예	-15261
따	-15262
열	-15263
될	-15264
먹	-15265
배	-15266
몸	-15267
씀	-15268
짜	-15269
응	-15270
재	-15271
꾸	-15272
레	-15273
달	-15274
슨	-15275
책	-15276
활	-15277
싫	-15278
근	-15279
답	-15280
머	-15281
격	-15282
된	-15283
벗	-15284
험	-15285
언	-15286
료	-15287
맞	-15288
겨	-15289
년	-15290
절	-15291
터	-15292
반	-15293
담	-15294
약	-15295
입	-15296
임	-15297
퍼	-15298
떨	-15299
함	-15300
피	-15301
통	-15302
막	-15303
좀	-15304
롭	-15305
녀	-15306
락	-15307
갑	-15308
!	-15309
작	-15310
산	-15311
새	-15312
쁘	-15313
눈	-15314
렸	-15315
쓰	-15316
등	-15317
죄	-15318
키	-15319
얼	-15320
럽	-15321
체	-15322
벌	-15323
싸	-15324
졌	-15325
왔	-15326
단	-15327
껴	-15328
차	-15329
술	-15330
딸	-15331
크	-15332
누	-15333
억	-15334
출	-15335
갈	-15336
얘	-15337
떠	-15338
죽	-15339
볼	-15340
길	-15341
뭐	-15342
명	-15343
놀	-15344
참	-15345
며	-15346
란	-15347
태	-15348
큰	-15349
투	-15350
급	-15351
습	-15352
환	-15353
디	-15354
평	-15355
별	-15356
찾	-15357
럼	-15358
손	-15359
파	-15360
몰	-15361
믿	-15362
올	-15363
웠	-15364
났	-15365
픈	-15366
현	-15367
항	-15368
긴	-15369
양	-15370
찮	-15371
접	-15372
청	-15373
발	-15374
표	-15375
허	-15376
충	-15377
림	-15378
갔	-15379
럴	-15380
초	-15381
됐	-15382
놓	-15383
본	-15384
쳐	-15385
축	-15386
암	-15387
온	-15388
곳	-15389
귀	-15390
극	-15391
혹	-15392
닌	-15393
개	-15394
줘	-15395
영	-15396
릴	-15397
루	-15398
척	-15399
텐	-15400
최	-15401
타	-15402
쓸	-15403
써	-15404
형	-15405
린	-15406
필	-15407
능	-15408
낌	-15409
풀	-15410
괜	-15411
폭	-15412
록	-15413
또	-15414
획	-15415
독	-15416
듣	-15417
끄	-15418
였	-15419
목	-15420
합	-15421
냥	-15422
호	-15423
챙	-15424
검	-15425
섭	-15426
줬	-15427
팀	-15428
먼	-15429
젊	-15430
뻐	-15431
십	-15432
겼	-15433
견	-15434
설	-15435
봤	-15436
낼	-15437
코	-15438
육	-15439
밖	-15440
월	-15441
립	-15442
덜	-15443
잔	-15444
잃	-15445
박	-15446
랐	-15447
빨	-15448
삶	-15449
승	-15450
잡	-15451
넘	-15452
늦	-15453
종	-15454
쉽	-15455
렵	-15456
쉬	-15457
국	-15458
득	-15459
택	-15460
혀	-15461
잠	-15462
커	-15463
탈	-15464
곤	-15465
큼	-15466
뒤	-15467
뭘	-15468
창	-15469
헤	-15470
욕	-15471
킬	-15472
끝	-15473
역	-15474
희	-15475
빌	-15476
긋	-15477
멀	-15478
옆	-15479
천	-15480
냐	-15481
백	-15482
쁜	-15483
악	-15484
젠	-15485
짓	-15486
확	-15487
추	-15488
패	-15489
늙	-15490
겪	-15491
몇	-15492
즐	-15493
꿈	-15494
존	-15495
켜	-15496
름	-15497
떡	-15498
둘	-15499
랜	-15500
탓	-15501
랬	-15502
칠	-15503
엔	-15504
듯	-15505
염	-15506
꼭	-15507
혈	-15508
밥	-15509
포	-15510
련	-15511
냈	-15512
채	-15513
굴	-15514
왕	-15515
흥	-15516
특	-15517
졸	-15518
침	-15519
순	-15520
압	-15521
완	-15522
잖	-15523
씨	-15524
쩌	-15525
밀	-15526
삼	-15527
끊	-15528
쳤	-15529
죠	-15530
낮	-15531
째	-15532
높	-15533
갖	-15534
뇨	-15535
맡	-15536
김	-15537
송	-15538
웃	-15539
둔	-15540
곧	-15541
젝	-15542
휴	-15543
뿐	-15544
석	-15545
권	-15546
향	-15547
욱	-15548
땐	-15549
찍	-15550
낙	-15551
덕	-15552
닐	-15553
겁	-15554
착	-15555
숨	-15556
짐	-15557
꺼	-15558
찬	-15559
낳	-15560
뢰	-15561
옷	-15562
깨	-15563
글	-15564
판	-15565
폐	-15566
골	-15567
얻	-15568
갚	-15569
끔	-15570
뭔	-15571
품	-15572
홀	-15573
픔	-15574
찌	-15575
빼	-15576
갱	-15577
팔	-15578
밤	-15579
숙	-15580
티	-15581
카	-15582
씩	-15583
봉	-15584
류	-15585
솔	-15586
좌	-15587
맛	-15588
쩔	-15589
멋	-15590
짝	-15591
붙	-15592
쌍	-15593
탁	-15594
앉	-15595
똑	-15596
틀	-15597
랫	-15598
멸	-15599
쪽	-15600
익	-15601
쟁	-15602
색	-15603
잊	-15604
맨	-15605
빚	-15606
효	-15607
례	-15608
플	-15609
낸	-15610
뒷	-15611
툼	-15612
넉	-15613
칭	-15614
토	-15615
깐	-15616
첫	-15617
릎	-15618
궁	-15619
깜	-15620
폰	-15621
랄	-15622
뜻	-15623
털	-15624
맘	-15625
쌓	-15626
뻔	-15627
뿌	-15628
량	-15629
걷	-15630
땅	-15631
팅	-15632
값	-15633
눌	-15634
앓	-15635
쭤	-15636
혐	-15637
걔	-15638
벽	-15639
빈	-15640
깝	-15641
령	-15642
슷	-15643
철	-15644
론	-15645
넣	-15646
곁	-15647
잦	-15648
즈	-15649
낫	-15650
맙	-15651
찰	-15652
액	-15653
뜨	-15654
핑	-15655
껏	-15656
툴	-15657
쾌	-15658
녁	-15659
메	-15660
춘	-15661
뀌	-15662
옮	-15663
촉	-15664
념	-15665
굉	-15666
범	-15667
눠	-15668
슴	-15669
긍	-15670
옛	-15671
썼	-15672
딱	-15673
낄	-15674
규	-15675
녔	-15676
씬	-15677
꿀	-15678
꿔	-15679
뽑	-15680
댁	-15681
펐	-15682
혔	-15683
몹	-15684
켰	-15685
핸	-15686
킨	-15687
풍	-15688
깊	-15689
꼈	-15690
뇌	-15691
뚱	-15692
싼	-15693
힐	-15694
꼬	-15695
뛰	-15696
브	-15697
흔	-15698
겹	-15699
닥	-15700
뉴	-15701
춰	-15702
힌	-15703
농	-15704
컴	-15705
흡	-15706
낯	-15707
푸	-15708
훨	-15709
흘	-15710
꼴	-15711
헛	-15712
꼼	-15713
뒀	-15714
냄	-15715
센	-15716
놨	-15717
률	-15718
멍	-15719
객	-15720
밝	-15721
샀	-15722
퓨	-15723
뺏	-15724
턴	-15725
협	-15726
잉	-15727
논	-15728
랠	-15729
멈	-15730
쁨	-15731
쎄	-15732
션	-15733
엉	-15734
훔	-15735
퉜	-15736
둬	-15737
렀	-15738
릇	-15739
꽤	-15740
첨	-15741
묻	-15742
팠	-15743
쩍	-15744
컸	-15745
탄	-15746
뤄	-15747
쯤	-15748
클	-15749
끌	-15750
쓴	-15751
램	-15752
닫	-15753
캄	-15754
페	-15755
빡	-15756
율	-15757
촌	-15758
읽	-15759
넷	-15760
둥	-15761
쫓	-15762
O	-15763
흐	-15764
굳	-15765
놔	-15766
밉	-15767
펴	-15768
베	-15769
밌	-15770
봅	-15771
훌	-15772
겐	-15773
뻤	-15774
릿	-15775
왠	-15776
납	-15777
녕	-15778
징	-15779
딜	-15780
빴	-15781
층	-15782
벼	-15783
좁	-15784
닮	-15785
뚝	-15786
뜩	-15787
푼	-15788
헬	-15789
륭	-15790
핀	-15791
컨	-15792
케	-15793
쌀	-15794
텔	-15795
낀	-15796
톨	-15797
휘	-15798
탕	-15799
흉	-15800
겉	-15801
딪	-15802
쇼	-15803
끈	-15804
벅	-15805
쩡	-15806
쉴	-15807
빵	-15808
씁	-15809
귄	-15810
돕	-15811
랍	-15812
앨	-15813
짧	-15814
퉈	-15815
펀	-15816
휠	-15817
찢	-15818
빛	-15819
닝	-15820
펙	-15821
쇠	-15822
톡	-15823
둑	-15824
짢	-15825
측	-15826
턱	-15827
혜	-15828
틈	-15829
싱	-15830
헌	-15831
꽃	-15832
롱	-15833
쁠	-15834
옳	-15835
펑	-15836
북	-15837
칙	-15838
귈	-15839
섯	-15840
얄	-15841
툰	-15842
쏟	-15843
튼	-15844
광	-15845
맺	-15846
앗	-15847
떼	-15848
땠	-15849
씻	-15850
총	-15851
낭	-15852
쭉	-15853
듬	-15854
딴	-15855
맥	-15856
썩	-15857
덧	-15858
녹	-15859
떳	-15860
옥	-15861
줌	-15862
냉	-15863
눅	-15864
쑤	-15865
괘	-15866
뜸	-15867
씸	-15868
꾼	-15869
놈	-15870
룬	-15871
뼈	-15872
탐	-15873
닿	-15874
삐	-15875
콜	-15876
룰	-15877
뱃	-15878
봄	-15879
덩	-15880
밑	-15881
쪄	-15882
딩	-15883
윗	-15884
틱	-15885
깎	-15886
뀐	-15887
홍	-15888
균	-15889
뎌	-15890
럭	-15891
블	-15892
쥐	-15893
툭	-15894
푹	-15895
훈	-15896
쑥	-15897
융	-15898
숭	-15899
찜	-15900
깔	-15901
삭	-15902
섞	-15903
섰	-15904
캠	-15905
콘	-15906
넓	-15907
렴	-15908
벤	-15909
셋	-15910
핵	-15911
곡	-15912
뚜	-15913
룸	-15914
샘	-15915
잤	-15916
덮	-15917
렁	-15918
엎	-15919
첩	-15920
톤	-15921
츠	-15922
탬	-15923
텃	-15924
끗	-15925
슐	-15926
튜	-15927
틸	-15928
팍	-15929
핍	-15930
헷	-15931
깥	-15932
볍	-15933
싹	-15934
템	-15935
땀	-15936
춤	-15937
덤	-15938
횡	-15939
댄	-15940
댈	-15941
돋	-15942
듦	-15943
롤	-15944
섬	-15945
쪘	-15946
찔	-15947
굶	-15948
렷	-15949
웬	-15950
껄	-15951
닦	-15952
잇	-15953
줍	-15954
홧	-15955
갇	-15956
슈	-15957
썽	-15958
웨	-15959
탔	-15960
곱	-15961
뉘	-15962
댔	-15963
쪼	-15964
팡	-15965
꿨	-15966
딘	-15967
륜	-15968
묵	-15969
밭	-15970
붓	-15971
텨	-15972
몫	-15973
뵙	-15974
얹	-15975
닭	-15976
뜯	-15977
벙	-15978
뽀	-15979
씌	-15980
젯	-15981
쩜	-15982
겸	-15983
뀔	-15984
묘	-15985
뭇	-15986
볶	-15987
캐	-15988
텅	-15989
끓	-15990
링	-15991
쭈	-15992
콩	-15993
띄	-15994
찝	-15995
챘	-15996
퉁	-15997
뜬	-15998
랴	-15999
